[PAD]
[UNK]
[CLS]
[SEP]
[MASK]
!
"
&
'
(
)
*
+
,
-
.
/
:
;
<
=
>
?
@
[
\
]
^
_
`
a
b
c
d
e
f
g
h
i
j
k
l
m
n
o
p
q
r
s
t
u
v
w
x
y
z
{
|
}
~
¡
¢
¤
¦
§
¨
©
ª
«
¬
®
¯
°
±
²
³
´
¶
·
¸
¹
º
»
¼
½
¾
¿
×
ß
à
á
â
ã
ä
å
æ
ç
è
é
ê
ë
ì
í
î
ï
ñ
ò
ó
ô
õ
ö
÷
ø
ù
ú
û
ü
ý
ā
ą
ć
č
ē
ė
ę
ğ
ī
ı
ĺ
ł
ń
ň
ō
ŏ
œ
ś
ş
š
ū
ż
ž
ƪ
ǝ
ɑ
ə
ɛ
ɞ
ɢ
ɪ
ɴ
ɹ
ʀ
ʃ
ʏ
ʔ
ʕ
ʖ
ʘ
ʙ
ʚ
ʜ
ʟ
ʰ
ʲ
ʳ
ʷ
ʸ
ʾ
˂
˃
ˆ
ˇ
ˈ
ˊ
ˋ
ː
ˑ
˒
˓
˕
˖
˘
˙
˚
˜
˝
ˡ
ˢ
ˣ
˳
˵
˶
˹
˼
̀
́
̄
̅
̆
̇
̈
̍
̑
̣
̤
̥
̩
̫
̮
̯
̲
̴
̵
̶
̷
̸
̿
͈
͎
͏
͙
͜
͝
͞
͟
͠
͡
͢
ά
έ
ή
ί
α
β
γ
δ
ε
η
θ
ι
κ
λ
μ
ν
ξ
ο
π
ρ
ς
σ
τ
υ
φ
χ
ω
ό
ύ
ϙ
ϟ
а
б
в
г
д
е
ж
з
и
й
к
л
м
н
о
п
р
с
т
у
ф
х
ц
ч
ш
щ
ы
ь
э
ю
я
ё
є
ѕ
і
ї
҈
҉
ғ
ҳ
ҷ
՞
ա
բ
գ
դ
ե
զ
է
ը
թ
ի
լ
ծ
կ
հ
ղ
մ
յ
ն
շ
ո
չ
պ
ս
վ
տ
ր
ց
ւ
ք
֊
֍
֢
֪
ְ
ִ
ֶ
ַ
ָ
ֹ
ּ
׀
ׂ
א
ב
ג
ד
ה
ו
ז
ח
ט
י
ך
כ
ל
ם
מ
ן
נ
ס
ע
ף
פ
ץ
צ
ק
ר
ש
ת
״
؋
،
؍
؎
؏
ؐ
ؑ
ؒ
ؓ
ؔ
ؕ
ؖ
؛
؟
ء
آ
أ
ؤ
إ
ئ
ا
ب
ة
ت
ث
ج
ح
خ
د
ذ
ر
ز
س
ش
ص
ض
ط
ظ
ع
غ
ؽ
ف
ق
ل
م
ن
ه
و
ى
ٓ
ٔ
ٕ
ٖ
ٗ
٘
ٙ
ٚ
ٛ
ٜ
ٞ
٠
١
٢
٣
٤
٥
٦
٧
٨
٩
٪
٫
٬
٭
ٮ
ٰ
ٱ
ٲ
ٳ
ٴ
ٵ
ٶ
ٸ
ٹ
ٺ
ٻ
ټ
ٽ
پ
ٿ
ڀ
ځ
ڂ
ڃ
ڄ
څ
چ
ڇ
ڈ
ډ
ڊ
ڋ
ڌ
ڍ
ڏ
ڑ
ړ
ڔ
ڕ
ږ
ڗ
ژ
ڙ
ښ
ڜ
ڟ
ڠ
ڤ
ڨ
ک
ڪ
ګ
ڬ
ڭ
گ
ڱ
ڳ
ڵ
ڸ
ڹ
ں
ڻ
ڼ
ڽ
ھ
ۀ
ہ
ۂ
ۃ
ۅ
ۆ
ۇ
ۉ
ۊ
ی
ۍ
ێ
ۏ
ې
ے
ۓ
۔
ە
ۖ
ۗ
ۘ
ۙ
ۚ
ۛ
ۜ
۞
۟
۠
ۡ
ۢ
ۣ
ۤ
ۥ
ۦ
۩
۪
۫
۬
ۭ
۰
۱
۲
۳
۴
۵
۶
۷
۸
۹
۽
۾
ܐ
ܚ
ܝ
ܢ
ܩ
ܵ
݊
ݝ
ݢ
ݣ
ݧ
ݩ
ݪ
ަ
ް
ࢪ
࣪
࣭
ࣰ
ࣱ
ࣲ
ࣿ
ं
अ
आ
इ
ई
उ
ए
औ
क
ख
ग
च
छ
ज
ट
ड
त
थ
द
ध
न
प
फ
ब
भ
म
य
र
ल
व
श
स
ह
़
ा
ि
ी
ु
ू
े
ै
ो
ौ
्
।
ঈ
ঊ
র
া
্
ੈ
੭
દ
૮
୧
୨
இ
ஓ
ஜ
ீ
௰
ఌ
౾
ಠ
ಡ
ತ
ಥ
ರ
ಿ
ೋ
ෆ
෴
ก
ข
ค
ฅ
ง
จ
ช
ซ
ณ
ด
ต
ถ
ท
น
บ
ป
ผ
พ
ฟ
ภ
ม
ย
ร
ล
ว
ส
ห
อ
ฮ
ะ
ั
า
ำ
ิ
ี
ึ
ื
ุ
ู
ฺ
เ
แ
โ
ใ
ไ
ๆ
็
่
้
๊
๋
์
๑
๛
ຶ
໋
༄
༅
༆
༉
་
༎
༒
༘
༚
༢
༨
༺
༻
༼
༽
ུ
ོ
ྀ
࿇
࿐
࿔
း
ა
დ
ი
ლ
ღ
჻
ᅟ
ᅠ
ፈ
፧
᎒
ᐛ
ᐟ
ᐢ
ᑦ
ᒄ
ᒻ
ᕕ
ᕗ
ᕙ
ᕤ
ᕦ
ᕬ
ᗒ
ᗕ
ᗣ
ᗩ
ᝰ
៕
៸
៹
ᣔ
ᣳ
ᣴ
ᥫ
ᥬ
᪥
ᬼ
ᭂ
᭄
᭡
ᯓ
᯽
ᰔ
᳟
ᳯ
ᴀ
ᴄ
ᴅ
ᴇ
ᴋ
ᴍ
ᴏ
ᴖ
ᴗ
ᴘ
ᴛ
ᴜ
ᴡ
ᴥ
ᴬ
ᴱ
ᴹ
ᴼ
ᵃ
ᵇ
ᵈ
ᵉ
ᵍ
ᵏ
ᵐ
ᵒ
ᵔ
ᵕ
ᵖ
ᵗ
ᵘ
ᵛ
ᵞ
ᵣ
ᵤ
ᶜ
ᶠ
ᶤ
ᶰ
ᶳ
ᶻ
᷂
᷄
᷅
‐
‑
–
—
―
†
‡
•
…
‧
′
″
‸
‹
›
※
‼
‾
‿
⁂
⁃
⁄
⁉
⁕
⁛
⁞
⁰
ⁱ
⁴
⁵
⁶
⁷
⁸
⁹
⁺
⁽
ⁿ
₀
₁
₂
₄
₇
₉
₊
₍
₎
ₑ
ₒ
ₛ
⃘
⃝
⃟
⃢
⃣
⃤
℅
ℎ
ℒ
ℓ
ℕ
℘
™
ℯ
ℳ
ℴ
ℹ
⅓
⅔
←
↑
→
↓
↔
↕
↖
↗
↘
↙
↜
↝
↡
↩
↪
↫
↬
↯
↲
↳
↴
↵
↶
↷
↻
↼
⇆
⇐
⇓
⇔
⇚
⇜
⇝
⇠
⇢
⇣
⇦
⇨
⇩
∀
∆
∇
∑
−
∘
∙
√
∞
∧
∩
∪
∵
≈
≛
≠
≡
≤
≥
≦
≧
≻
≼
≽
⊂
⊃
⊙
⊰
⊱
⊹
⋅
⋆
⋖
⋗
⋞
⋟
⋯
⌇
⌈
⌋
⌐
⌒
⌓
⌗
⌛
⌜
⌝
⌞
⌟
⌠
⌡
⌢
⌣
⌨
⌫
⌯
⎈
⎔
⎗
⎘
⎯
⏪
⏫
⏬
⏭
⏮
⏯
⏰
⏱
⏲
⏳
⏸
⏹
⏺
⑅
①
②
③
④
##ا
##ک
##ت
##ی
##س
##د
##ع
##ر
##م
##ن
##ذ
##ش
##ح
##ب
##و
##ج
##آ
##ق
##ز
##ه
##ل
##ص
##گ
##٢
##٥
##ف
##a
##j
##g
##i
##r
##l
##s
##t
##u
##d
##e
##n
##h
##p
##o
##m
##خ
##ژ
##۳
##پ
##ہ
##b
##۰
##غ
##ה
##ו
##ד
##י
##۶
##۵
##w
##c
##f
##q
##v
##k
##۸
##۴
##۱
##۷
##۹
##ى
##چ
##ء
##ط
##ض
##ظ
##٧
##٨
##۲
##ؤ
##y
##z
##ٔ
##إ
##ئ
##ە
##ث
##x
##ٖ
##ے
##ۆ
##ۍ
##ڭ
##ړ
##ٰ
##ࣲ
##ھ
##ۀ
##١
##ڑ
##ڠ
##ڤ
##ې
##á
##ة
##ێ
##ږ
##ڪ
##а
##с
##к
##ж
##у
##ځ
##÷
##ࣿ
##⃣
##أ
##н
##р
##ಥ
##ٕ
##٤
##٠
##ᴄ
##ᴀ
##ʀ
##ٽ
##ڊ
##ګ
##±
##ٓ
##ټ
##ۂ
##°
##ı
##ڽ
##٣
##ş
##ր
##ի
##ս
##տ
##ո
##ڕ
##↙
##ݢ
##ډ
##ڈ
##ں
##т
##о
##א
##ר
##כ
##ת
##ח
##ל
##٩
##↷
##ښ
##ü
##ā
##ڵ
##ۅ
##ۖ
##ि
##त
##न
##ा
##ٺ
##ڼ
##ň
##ٸ
##ג
##ז
##́
##ם
##↑
##ա
##ն
##ք
##ə
##ࣰ
##ː
##⏬
##ט
##ע
##נ
##î
##۞
##ۊ
##ٱ
##л
##з
##ç
##ğ
##ן
##ۢ
##ä
##²
##⁴
##∙
##⁵
##⁶
##×
##ؔ
##ڔ
##ۡ
##⏰
##᭄
##ᴋ
##é
##र
##्
##क
##⌣
##ö
##څ
##ב
##¬
##π
##ε
##ρ
##γ
##ι
##α
##פ
##ק
##ٶ
##٦
##ó
##ᴍ
##σ
##λ
##ω
##ς
##г
##д
##м
##и
##מ
##צ
##е
##˙
##х
##⁸
##ݣ
##п
##٘
##ū
##ڜ
##ٹ
##᷄
##फ
##़
##ۘ
##๑
##च
##ो
##ं
##̇
##ł
##ש
##©
##⇦
##ؽ
##ס
##⋗
##ʘ
##ݪ
##ш
##श
##े
##ī
##ۉ
##ß
##ñ
##і
##й
##ь
##ี
##่
##โ
##ซ
##ล
##ю
##ಠ
##ᴥ
##ᕙ
##−
##ǝ
##ಿ
##ٿ
##à
##¹
##³
##۟
##∞
##ۃ
##ã
##⏪
##å
##ۤ
##म
##ۥ
##≈
##í
##ࢪ
##ؑ
##ٛ
##ؕ
##ʰ
##ᵃ
##ⁿ
##ᵉ
##ˡ
##ั
##บ
##ป
##ุ
##๋
##ย
##≻
##દ
##ê
##≠
##¦
##ٚ
##ڬ
##ड
##ू
##ग
##ी
##⃟
##⊱
##в
##ч
##ಡ
##ᕕ
##⌛
##૮
##←
##ᥬ
##ว
##۩
##↓
##ٲ
##ì
##ฅ
##ڙ
##य
##я
##≽
##ʾ
##⁺
##ë
##ᴏ
##ʜ
##ᴅ
##ᴇ
##ᴛ
##û
##ɴ
##↝
##→
##↘
##เ
##็
##ค
##ร
##ง
##ۇ
##น
##อ
##า
##ต
##้
##↩
##थ
##ٞ
##ަ
##ް
##˘
##š
##ก
##ม
##ิ
##ท
##ื
##ด
##ู
##ส
##ะ
##ё
##↻
##ڳ
##υ
##θ
##ί
##ʕ
##´
##ज
##ؒ
##˃
##ณ
##๊
##ห
##แ
##ถ
##ไ
##ข
##จ
##ำ
##ݩ
##ɑ
##ؓ
##ᥫ
##᭡
##ղ
##զ
##щ
##℅
##â
##ٴ
##ۓ
##ٙ
##ؐ
##↯
##ך
##ᵈ
##ʸ
##⁰
##⁹
##ए
##ե
##լ
##ֶ
##¯
##⏳
##व
##प
##ø
##ы
##ࣱ
##б
##ᵒ
##ᵘ
##ʳ
##ོ
##ใ
##ๆ
##พ
##ช
##æ
##ּ
##√
##स
##ɹ
##ۏ
##ฟ
##ฮ
##⊂
##⇠
##ξ
##ú
##ल
##ट
##ᴗ
##ڌ
##ٵ
##ɢ
##ц
##ึ
##͡
##ह
##ٗ
##⊙
##ό
##≥
##⁷
##ڻ
##ٮ
##˹
##͜
##ï
##ݧ
##ō
##̥
##™
##¤
##ץ
##ή
##ɪ
##ʟ
##↖
##ο
##ڄ
##۾
##ը
##ڹ
##ۚ
##ē
##η
##ݝ
##؏
##˖
##ब
##ᵏ
##ڏ
##ҳ
##ෆ
##ڍ
##ˈ
##ɛ
##भ
##ν
##۪
##վ
##հ
##ै
##τ
##ά
##ƪ
##ღ
##҈
##⏱
##ᣔ
##इ
##ʃ
##ತ
##ु
##κ
##ᬼ
##࿇
##۠
##؎
##˚
##͎
##۫
##⋆
##↕
##↗
##ҷ
##ₑ
##ғ
##ผ
##è
##δ
##⏺
##ख
##⇆
##մ
##գ
##յ
##ć
##ई
##ܩ
##®
##դ
##ܝ
##ܢ
##ℒ
##ℴ
##ℯ
##ℎ
##ף
##ô
##ᗩ
##≤
##ڨ
##ˆ
##↔
##⇩
##⇓
##∆
##̶
##∀
##⌨
##˼
##ۦ
##ž
##࣪
##պ
##ց
##õ
##ڃ
##์
##₉
##ᴬ
##μ
##έ
##ύ
##ś
##ծ
##˝
##⋅
##⇣
##ौ
##չ
##ภ
##∇
##இ
##௰
##↬
##ą
##अ
##≛
##₊
##ˢ
##ᵗ
##ᴼ
##ᴱ
##ٻ
##ⁱ
##ۭ
##є
##ᵔ
##≡
##կ
##˜
##ٜ
##ф
##۽
##द
##ї
##ʷ
##ڋ
##ʏ
##ʔ
##ᵛ
##ַ
##ָ
##ֹ
##ְ
##̤
##ѕ
##↫
##༚
##ᵕ
##⑅
##؋
##⏸
##⏮
##¸
##↪
##⊃
##⇢
##ᴜ
##ರ
##↴
##ڸ
##⊹
##ℳ
##ध
##র
##β
##ւ
##э
##⏹
##ڟ
##ᴘ
##ۙ
##º
##̩
##͙
##⏭
##ڱ
##᷅
##շ
##̣
##ɞ
##ఌ
##্
##¾
##ᰔ
##̯
##̲
##͈
##̫
##̀
##ˇ
##թ
##բ
##℘
##ۜ
##ℓ
##↲
##₀
##ę
##͏
##۬
##̵
##̄
##ᶰ
##̷
##˶
##ა
##ი
##⌟
##া
##ִ
##¼
##ྀ
##ò
##⎯
##⏫
##↳
##̿
##ℹ
##č
##⏲
##დ
##ლ
##ᕬ
##ᅟ
##ý
##↶
##ń
##ϟ
##ᶜ
##໋
##ۛ
##⅓
##⏯
##̑
##ĺ
##↡
##⌒
##œ
##₁
##ᐟ
##½
##ʲ
##ˣ
##ℕ
##ₒ
##ᵤ
##χ
##ʚ
##ུ
##ؖ
##̈
##①
##ஜ
##ż
##⅔
##¢
##⇝
##୨
##୧
##ᅠ
##ঈ
##ঊ
##ڂ
##֍
##ڗ
##₂
##ᵍ
##⇜
##֪
##ᵐ
##͟
##ᶳ
##ᶠ
##⇐
##⇔
##②
##ʙ
##∩
##≦
##ᒄ
##ᶤ
##ڇ
##⊰
##⃢
##ù
##∪
##ᕦ
##ܵ
##ܐ
##̴
##̆
##ᭂ
##φ
##҉
##आ
##⌓
##≼
##̮
##ڀ
##˂
##̍
##˵
##ᵖ
##ᗒ
##ᗣ
##ᗕ
##͞
##⋟
##⌇
##③
##ᵣ
##֢
##͢
##∘
##༢
##⇨
##⌝
##ˋ
##ׂ
##ܚ
##͝
##¨
##⃤
##ϙ
##៹
##͠
##݊
##ٳ
##ᴹ
##៸
##⃝
##छ
##ೋ
##ʖ
##⁄
##ᴡ
##ۣ
##ᵇ
##ᣴ
##ᵞ
##ۗ
##ฺ
##⋞
##̸
##ᝰ
##˓
##⌯
##ˊ
##˳
##⌞
##↵
##↜
##ᯓ
##ᕤ
##է
##̅
##④
##उ
##₄
##⌜
##≧
##ੈ
##ீ
##༨
##ຶ
##ᐢ
##း
##˕
##˒
##᷂
##ₛ
##ė
##ᴖ
##⌢
##᳟
##᎒
##ᶻ
##₇
##ᕗ
##࣭
##ª
##ŏ
##↼
##⌗
##⌠
##⇚
##∵
##੭
##∑
##∧
##⃘
##ᣳ
##ᑦ
##ᒻ
##ᐛ
##ˑ
##⋯
##⌡
##ஓ
##ین
##ان
##ار
##ای
می
##ون
##ست
##ید
به
##اد
##رد
با
##ام
که
##ود
از
##ال
##ری
این
##ند
هم
رو
##لی
##یر
تو
در
بر
##یم
من
##اش
##اب
##ور
##اه
ام
##فت
##rl
url
##تر
##کن
کن
##می
##های
##ات
##شه
##اس
خو
دار
##ده
##an
##گه
بود
##تی
بی
##ها
کرد
##ar
##رو
دو
یه
ان
##لا
است
مه
##از
میکن
را
##را
نی
##ینی
##سی
ال
خود
دی
یک
##دم
سر
##وم
##گی
نمی
##سا
##شت
##زی
##وی
##انی
##ول
##خو
تا
چی
برای
##رم
##ایی
##تون
##شن
خی
##اشت
اون
##یت
مهسا
ما
##am
شد
##اری
امینی
##in
##اق
##نی
##اید
ند
##ره
##ما
هر
##شم
##گر
##وری
##دی
##شون
اس
ولی
نیست
##در
##اره
ایر
##له
##اک
##ردم
##ah
هست
##رف
مو
خیلی
بع
##نگ
بد
##خت
##لم
چه
همه
میگ
نه
هی
##بی
##قی
اع
##دا
##زن
کار
##اده
یا
دیگه
پی
##on
وق
##که
بگ
حال
##به
##کر
ایران
##لام
##ad
##مه
روز
دست
توی
##ir
زند
گفت
باید
##al
نم
##بر
##شی
##وز
داشت
سال
##ادی
##er
شده
##است
میخو
ای
میشه
##اا
##قط
##فر
بعد
دوست
##as
##ونه
مر
بخ
##انه
شما
مح
حس
هیچ
##کی
مردم
چرا
داره
فقط
گر
مع
مید
پس
##بین
##اقع
داد
##بت
##یدم
اص
##مون
دارم
##زار
شه
فر
کی
##گاه
واقع
##ee
##وش
او
##ii
##مان
نب
##جا
یکی
میک
الان
##oo
رفت
باشه
##چه
اگه
پر
##فه
آن
همین
##وت
میکنم
کنم
تم
##کت
##الی
##لت
##ارم
باش
انق
سی
مث
کش
##un
##یی
##اع
کم
تر
##eh
##sh
##کس
##at
وقتی
##هه
##تو
##اند
##ed
##یده
##ونم
##اط
باز
ار
##ay
##هی
زندگی
زی
نظ
##لو
##en
کردن
تن
اح
##فی
##مم
##az
نش
##id
##روز
##شک
قر
##ترین
اعت
یاد
دل
##۰۰
##ایت
##ابات
خوب
حرف
##ریم
کسی
خدا
واقعا
بیش
گرفت
آم
##sa
##نده
فکر
مس
آخ
انت
##با
##جی
جو
میکنه
کنید
##قا
##ستان
##قت
##li
##or
آز
##جه
##عی
##بان
آدم
چند
##مو
سراس
میش
##بار
##من
##دن
اینکه
##قدر
مت
نو
کردم
اول
امروز
کرده
اسلام
رس
##xo
مج
اگر
خوش
##ab
##سته
##ونی
سراسری
علی
زن
چون
##han
بزن
فی
mah
سو
##سن
ری
##یدن
بچه
##ضی
دخ
قب
##امه
شب
##سه
بار
##ou
بز
##لاب
##عه
گذ
کو
##ادر
نکن
اما
حالا
خواه
پیش
##is
اف
دختر
اخ
##سم
##انش
تح
اعتص
##es
کر
##رده
ات
خر
واس
خب
##ازه
##اف
##شو
کنه
##gh
ببین
کس
##im
جم
##are
##کار
راه
هن
وقت
جه
گو
صد
##هم
میخ
نمید
دور
اوم
حق
جمه
خون
کل
##کا
##قد
چیزی
بل
مثل
ماه
##iran
##اح
بیشتر
##ازی
##شته
##aa
بودن
##ol
خان
##ردن
جن
اعتصابات
##el
بازی
میزن
انقلاب
##هر
شدن
##لب
عم
##یرم
##رت
##ارد
##قه
اصلا
op
بده
حتی
sh
we
توییت
کشور
یع
##خص
اسلامی
شر
##تم
دلم
مد
مرد
پای
خودم
حم
##امی
منم
اد
##ئی
یعنی
شم
میتون
##رگ
am
میر
چیز
تع
ده
##اسی
##نت
عزی
##فته
کاش
##یدی
##یشه
##یره
##ini
##نه
بشه
##onee
میده
نبود
میکنن
mo
میگه
weare
weareonee
weareoneexo
##ارو
شک
دنی
##وس
##فا
واسه
زم
جمهوری
##il
##ez
عزیز
##وان
آب
opiran
##ak
##وند
##he
چشم
نداره
##مد
دقی
بودم
روی
درست
##ینه
ساع
هنوز
##اض
اج
##اخت
نک
میاد
##جوری
خواب
##چی
مش
##وو
##اج
خد
##ic
تل
##نج
دانش
##بری
عکس
دارن
جان
##بال
آزادی
##رز
نام
اند
##av
##دید
داشته
همیشه
انتخ
##ضا
##انت
تمام
##it
انگ
هو
همون
صب
تنها
امید
کنیم
شن
##em
فرد
شدم
سه
بن
ساعت
##مت
##تا
زیر
بزرگ
نمیکن
##اخ
##اطر
mahsa
حد
خودش
نگ
##dr
نفر
جای
شی
طرف
گل
بش
اینا
##ot
بهش
##زه
چقدر
شو
اه
مق
##رر
افت
##سط
##ran
پول
اک
##ستم
##os
##جود
بین
##الا
درد
سلام
بالا
##om
بیر
قشن
##اهی
##رب
رای
st
بخو
##وره
##هایی
##وب
نمیشه
تص
##ts
خونه
##۱۳
##شب
##خی
نظر
##صد
مادر
بدون
جا
بهم
بوده
ندار
##یدا
##yun
ندارم
شهر
امام
خبر
اینه
قط
روح
بک
مشک
حک
##وق
##باره
عش
##ey
##جام
ایرانی
داری
حسین
صبح
##aj
##af
##تش
اینجا
##op
لی
دیدم
دنیا
نمیتون
بیا
میز
منو
ar
##hang
کام
شاید
##پر
برگ
##اص
لب
##گان
lay
میخوام
##سال
اعتر
تویی
کنی
##اااا
میگن
##ari
##وه
داریم
##اشون
##ag
##قای
##ورت
خودت
آخر
کاری
وای
نداشت
hyun
hun
مط
##ستی
لط
ره
اسم
نمیدونم
گفتم
##dred
کت
hundred
##انم
##ونا
مام
##zhang
layzhang
بب
##oc
میبین
مبار
شاه
سری
##دار
نس
هزار
##اپ
چیه
میب
##ولی
بگم
برم
میگم
##۲۰
مرگ
ملت
بیرون
##نم
##اتون
نز
برا
پسر
واک
##ارت
مم
الله
قرار
اب
##فاق
##سان
وی
پیدا
##اتی
تج
قبل
##kh
##قیه
باه
بابا
شع
نباش
##ومت
تک
مورد
##amini
خط
##ویی
تی
##شان
برن
##ریه
عشق
##ذار
##ابل
گوش
بسی
خام
میخواد
##۹۹
هشت
دیگر
##ریکا
ول
جواب
وجود
خار
##ورم
##di
حض
##حال
##ایه
##et
میشن
##ایم
##بته
داشتم
mahsaamini
برام
مخ
فرو
کنن
خوبه
نف
تاری
##ردی
گذاشت
##لیل
##وص
تول
جز
پرو
##ودی
##ch
بهتر
##قل
##ایش
اعتراض
اتفاق
لح
تهر
شرو
فیلم
##st
منت
نگاه
زدن
فک
##پی
میکنی
البته
مشکل
جدید
شیر
پدر
واکسن
دولت
غیر
رئی
##نا
پیر
بدم
توییتر
ارز
زمان
سپ
دع
خوبی
##اله
کلی
کا
دادن
عاش
برد
##ash
فال
##عت
ali
##قع
مهم
قشنگ
al
کنار
##خش
##ریف
کد
تموم
##این
تب
جمع
صح
پشت
میلی
دقیقا
##of
عن
دن
میگفت
بیاد
##یه
دارد
باب
##طور
زیاد
##غان
##تما
آه
##ide
پنج
اط
دانشگاه
خواست
آر
تهران
بعضی
دید
فردا
قدر
جل
جنگ
خیاب
##یا
سخت
کرونا
شروع
##گیری
ته
##الله
##او
همچ
مگه
هستند
بقیه
##ra
خاک
انجام
##ani
انقدر
##فاده
کلا
##غی
نخ
##۰۱
کتاب
نار
##زد
خانو
##haz
۱۴
اش
##رمان
تازه
دنبال
آو
فع
آقای
تخ
میکرد
داده
##حت
میشود
عو
میشم
##یند
##الت
لطفا
##لوم
ملی
مغ
زد
##نان
قطع
شخص
##اهد
##طی
##اسم
فل
استفاده
بگیر
نیاز
مص
iran
درو
ممن
دف
کص
amir
باشی
انتخابات
##زم
دوباره
the
##کو
قلب
stop
##ham
جون
##یمی
سن
وض
##وع
##ing
بید
##کتر
صدای
باشد
بکن
##سین
میکنیم
جام
بم
##ادم
دیگ
چهار
##ali
بلا
گفته
بند
افغان
اشت
دم
جهان
##۱۱
خودشون
دا
##ظر
باشم
دوستان
مرسی
آمریکا
نر
میکنند
روزی
میدم
##نین
##دد
##ابی
بس
مون
اینو
پیام
حی
##جم
##ti
ساخت
بگو
انگار
غم
کند
##re
##روم
سف
امشب
بهت
نزدی
##enoc
گرفته
##کش
دیر
موقع
##ظه
کجا
##اقل
۲۰
حر
##ri
##enocide
مست
بح
##طن
##hazar
پاک
هستن
اومد
نق
stophazar
میکند
کردی
محمد
نخو
##ادت
ادم
##ایل
احس
زود
stophazarag
##وقت
##خره
رفته
نمیخو
فهم
برق
دوس
بیم
ادامه
اشتب
##ac
دری
کنند
##الم
بچهها
##ian
آقا
گرو
زمین
اینجوری
وح
بغ
بخاطر
گرم
تیم
##طوری
حکومت
##وار
##شد
##od
stophazaragenocide
ست
##طه
تق
##نگی
##کان
##هههه
وضع
مرا
گی
قی
میشد
تش
قد
نشون
زده
نص
زنده
خاطر
##کم
باشید
##and
عاشق
مسئ
##eza
ماش
خدای
##اها
هفته
هیچی
میکردم
پار
حمایت
وسط
طال
انتخاب
میکنید
میگی
ساز
تاریخ
جدی
##ینده
##نن
مبارک
نا
##نهای
میدون
بال
ناراح
باد
##ial
نیر
ab
##یییی
سگ
خواهد
سخ
جلو
##۱۹
##وید
##۲۲
رژ
عر
اینتر
انسان
دلیل
##ur
##ast
احساس
##ow
بره
##جب
##تح
برنامه
میره
شهید
ازش
فار
##mad
پا
بهترین
قه
دشم
لع
په
گریه
تف
خانواده
نیستم
اره
عب
آزاد
شود
وا
tw
دروغ
سب
قان
##ستا
بری
نظام
فالو
##se
##بیه
بدن
ریت
اولین
۱۰
بدی
نگر
کج
حقی
بو
خودتون
##۱۴
##امون
##ابر
برو
لای
خوشحال
ببینم
افغانستان
درس
پاس
##صه
ور
bts
##فتم
اعتراضات
علیه
##fic
عجی
##eg
میبینم
##ایید
##ik
مثلا
مین
سرم
خسته
وارد
حل
قیم
اشتباه
جایی
شور
مال
##گیر
باشیم
##zad
رژیم
بزنم
رفتن
مان
تغی
##حی
باع
عق
##اکر
متو
پرس
سرد
اقت
##ia
دکتر
صف
##دو
۱۳
تغییر
نیم
##اشی
کمک
نکنید
مل
ساله
هستم
نج
##گار
منشن
هایی
یکم
هد
##ficial
mar
##گیم
رفتم
exo
احم
سوال
##گو
##میم
کدوم
##امو
حقوق
هرچی
##us
##لس
شرکت
نمیتونم
حساب
##ازم
باعث
میزنه
عص
زیب
آهنگ
بلند
میان
امیدو
کردند
آبان
##ستن
عالی
##لاق
راحت
آره
رفی
دوم
##زاده
کنین
اینقدر
غذ
قسم
##میت
صورت
نباید
##ae
##ینم
kh
مدر
حتما
حداقل
روشن
لباس
میدن
مذ
خامنهای
##۷۷
یادم
اطلا
##کل
##ران
هز
راب
##اسف
منط
##انس
جی
##ینگ
انقد
##افت
قبول
غر
امیدوارم
میرم
an
##وهای
گفتن
##ندی
سع
سیاسی
الح
افر
fat
##لط
twt
##وزی
ذه
##ریک
داشتن
باور
جوری
##۲۱
تبری
##خته
##شار
چقد
far
##ثر
##ژی
میدان
##داد
لحظه
دارید
جوان
عوض
احتم
##ربه
##رح
##شنبه
فوت
خالی
بان
آخه
بگی
دان
سک
میلیون
##ناه
بچ
نزدیک
بیدار
رب
قدرت
میم
جال
آنها
##ضای
داخ
ماشین
##man
mr
اومده
نگه
کون
قیام
زبان
##ژه
بگه
هشتگ
ممکن
بیت
خورد
کث
اشک
رد
##oon
نتی
امتح
طالبان
##all
زیبا
عزیزم
میخواست
دادم
هفت
گرفتن
اطلاع
##شتن
دلت
خرید
اکانت
زدم
##شر
گروه
هستیم
سنگ
دفاع
##ائ
فره
بشن
فح
صدا
براش
گذشته
وطن
بازم
عنوان
##فهم
متاسف
خانم
بحث
شرای
##ابه
میتونه
##esh
بخیر
منتظر
انتظ
##شید
##ریب
بزار
کف
اونم
همش
بریم
کان
توسط
##ers
اعلام
##صل
نیکا
دیدن
قراره
اقتص
تولد
##کاری
درصد
آرز
تلاش
##le
اینستا
راست
##وط
##لیم
سرب
رفیق
فرا
کود
##فرم
##مل
کیر
خل
قیمت
ترس
نمیاد
حقیقت
توجه
باهاش
رنگ
وز
##فق
##ریت
##ایر
بله
دارند
زندگیم
خدایا
##eb
رئیسی
نداریم
رسید
میدونم
حج
داست
خور
##ap
##راه
##agh
عمل
##our
گرفتم
صحبت
روحانی
داداش
کلم
اصن
##حه
لو
سمت
##ابت
نیس
پایین
خلا
گیر
##توان
کوت
##مممم
اصلاح
##ehr
##ااا
##تت
بسیار
امتحان
ترو
رئیس
مدت
رهبر
برات
##گز
میزنم
منظ
##رس
تس
کلاس
##لیت
##پا
اینم
زنگ
##ابم
پو
هستی
میری
همس
بج
اونا
##iii
##adi
نشد
هیچوقت
چجوری
حو
##ep
تنگ
کشته
##امل
##جر
##لمان
واقعی
sar
نشده
نمیک
عل
##سیه
##ادن
وضعیت
ممل
بدب
ندارد
خودمون
خاص
اونجا
استاد
##اکرمی
جامعه
##اشو
##بانی
im
موض
نمیکنه
ناب
زیادی
شبیه
نور
آل
ترکی
##دام
##جان
کردیم
پلی
ناراحت
خوشگ
حمله
##ویس
##ریان
##صی
ایم
نتیجه
جمله
حضرت
تایم
مجلس
ir
جذ
شاکرمی
##گرام
ارت
حضور
##فظ
لذ
یو
##ov
خیابون
##ll
دیده
یهو
متن
مهر
##زش
میگیره
فرم
شرایط
تحریم
چیکار
مسا
##ob
##ist
بذار
همان
دیشب
جد
عه
##یش
##زند
##oh
میتر
چطور
پایان
##داشت
of
مملکت
##ya
بست
##۱۲
جهانی
sa
حب
زنان
دشمن
عد
انقلابی
خارج
##وده
ازدو
##وا
##۶۶
متاسفانه
طب
par
آینده
پست
کامل
دیروز
بلو
زمانی
##لوی
دقیقه
##شنه
بتون
شاد
##نش
فحش
خم
نظرم
امن
رهبری
میس
هدف
توش
کمتر
ارو
th
باشن
گوه
##بون
رح
آرام
ممنون
خراب
نمیگ
نمیکنم
ham
##ذر
##لات
##روی
##ویت
##شتم
بعدش
##ونده
گم
فعال
شعار
درک
داستان
میزنن
ترک
##ev
نما
##ew
بخش
انتق
سپاه
آیا
دلار
ازدواج
##۸۸
قانون
نداشته
تصمیم
عین
نسبت
بدید
ch
نسل
##لاح
##رین
آموز
نشه
دوتا
دین
برابر
تون
درسته
پخش
##جو
ایش
بوی
کوچ
مز
##لف
نوشته
##افق
آغ
##ter
آس
مامان
۱۲
ارزش
in
bl
رضا
مامانم
##یما
##ati
اونایی
##اهر
تیر
وزیر
تجربه
والا
##۱۰
علا
##تل
moham
##نو
##گرد
##th
اپ
معلوم
میل
همهی
##ef
جمعه
فرام
انگلی
بگیرم
خدم
##کسی
کافی
گرد
مدی
خانه
##جوی
ندارن
##رفی
##ختی
حوص
درباره
لعنت
امیر
بزنه
آی
رابطه
قسمت
نباشه
##سو
طول
بیان
sam
##اور
##zi
##سلام
همراه
رم
حالت
مجب
##جور
برادر
موفق
هوا
باهم
اعتم
##ahr
بیمار
بنده
بسته
میخوره
نزن
متوجه
بلاک
کیرم
مخال
بشم
بهشون
روش
بفر
بودیم
عج
جنایت
آباد
##مع
gh
تاب
نفس
خیر
گوشی
اخه
فاط
مخت
قابل
اومدم
افس
##۶۷
##ec
اینها
نکنه
جور
بودی
##اشتی
میگیر
ماست
بدین
مشخص
بازار
##۹۸
بپ
اینترنت
مار
خوشم
##iv
##ته
پاره
##ss
اونی
##pr
فروش
##est
جر
سکوت
##وزه
سرا
مسئول
فراموش
انتظار
##اهم
عز
همچین
فرق
اتاق
طرح
سرنگ
قوی
ایشون
ابر
بگید
##نتی
بلکه
مشت
##جاد
۲۵
##رخ
اق
تومن
وگر
تکر
el
جدا
عید
لذت
تنهایی
حالم
##انیه
##خار
اصلی
##میه
زندان
ورز
استقل
مغز
کاملا
۱۵
##دای
##far
میخوای
اجازه
سازمان
الحسین
تروری
رفتار
گاهی
داغ
اذ
استوری
فرمان
مری
##ek
ببینید
شدیم
##لح
##official
احمق
دیو
as
اعتماد
تولید
##هام
گزار
روسیه
شکست
اضا
مقابل
حاج
میتونم
قول
فیل
۳۰
موضوع
##اشن
فرزند
حاض
انس
بگیره
##ein
##اتو
کری
برس
عمر
افراد
کشت
mh
خدایی
اندازه
##ژاد
آخرین
##بع
وگرنه
##آن
##عنا
هیچکس
##ho
حا
رق
آدما
##ورن
##شیم
##um
فارسی
##ot۷
آش
##ینا
سیاست
##هایم
بزنید
تبریک
##رررر
##بل
##رفت
##زارت
توان
زخ
##۷۸
##ei
##tion
همو
ریی
##ولو
##ack
سید
سیاه
##وله
چنین
مقا
سعی
##ang
نیز
پل
شا
پهلوی
نکرد
پشم
نمیده
سرک
بابام
ویر
رون
قطعا
##گری
افز
amini
میذ
##کز
##eed
##ok
کمی
فشار
##گونه
مدرسه
##aw
##eli
بغل
شلو
##ut
رف
عمو
خیابان
##شش
شکر
شنبه
پاد
یار
##ذره
مجازی
##بیر
hos
ماد
دهن
میفه
##اضی
##ندم
dr
خوردن
سق
سط
امنیت
انداخت
پرت
دوران
میشی
اجتما
##لیلی
ببخش
شدی
##فاوت
شدند
داخل
ریخت
متر
##پل
مونده
کنس
مقد
آخوند
نشان
##رافی
##وووو
##دیل
۱۰۰
##اظ
وزارت
آتش
نتون
سریال
خنده
##ارن
فری
##ent
حذ
fatem
کراش
##فن
فهمیدم
ینی
##۷۵
##ina
اخت
نیستن
##ahar
##my
بودند
همینه
نیروهای
حرم
غذا
شبکه
گذشت
هاش
##ذیر
میخوان
جلوی
رض
افتاد
پوش
احتمالا
مظ
۲۴
سفر
کسایی
حجاب
##شا
اضافه
یجم
مطم
طبی
کردید
نکرده
هرکی
یجمعنا
got۷
##ثیر
##ish
ولایت
##صت
افتخار
بالاخره
کوتاه
##ومد
##علی
##یدیم
##جد
دهه
##۱۸
بچههای
بفه
##ahra
##خورد
بخدا
۱۴۰۰
پیروزی
فیو
ها
##غه
its
##oli
##کور
کسانی
##ینک
##قر
احتر
##hs
آشن
##باط
##فتی
خارجی
ممکنه
##iiii
نداری
##ویه
##ظرم
زیبایی
ببر
##اهای
مالی
جمهور
##پولی
ایست
بلد
بیست
نمیر
حروم
نت
ایجاد
دستم
##فرو
pr
نمیخ
امسال
##۱۵
زاده
نمیدون
فرار
حذف
##ییی
##تان
پد
مها
استقلال
بذ
تبدیل
اتح
بهتون
الهی
##رسی
پیشنه
مطمئ
##غال
ناشن
##ard
##ویر
بای
##oy
گزارش
قتل
##ونگ
##لاین
##اقت
حفظ
ماس
فرست
۱۴۰۱
استرس
ویدی
گذاشته
اهل
##okh
لا
چپ
گه
آد
##ib
alir
سوم
تحمل
حرکت
براتون
##رش
at
بلوچ
فوتبال
توضی
ساده
کوچی
دارین
دعا
نصف
##ood
##ارش
مقاومت
کور
مطال
اینطوری
نجات
##صوص
##۶۹
فاک
عجیب
بدتر
زودتر
تعریف
درود
##بو
سرکوب
صرف
عرو
فعلا
##افظ
انسانی
سای
مشکلات
رسانه
بیام
##رائی
علم
روزه
کیف
اصفه
ریدم
نکردم
بخون
##igh
خورده
حسن
حاجی
##امپ
##وران
زه
##yam
هستید
اوک
شخصی
خودمو
تعداد
چطوری
قاسم
##۸۰
بعدی
شکل
##iss
خطر
آمد
اکس
##۱۹۹
صاح
عرا
##۷۹
مهدی
دوره
مدیر
قرم
عادی
ارتباط
نیستی
##بلا
مزد
چش
چین
fr
گردن
مهرب
افتاده
السلام
ازم
##iz
فلان
جریان
پن
اعص
اصل
شدت
##الو
منی
نگران
##عم
اجتماعی
میآ
بهتره
مناس
برداشت
توضیح
جهت
میرس
کارت
##ضیه
خوز
کننده
##فل
مرح
قلبم
زین
موجود
مسخره
پاش
دیگران
داشتیم
نمیفه
نمیشن
حوصله
##ry
شان
##مند
##مونی
منه
پرچ
میپ
ضد
##گین
اسپ
طل
اقتصادی
##۶۰
قهرمان
فرمانده
شوخی
خانوم
مخالف
##۲۴
پرسپولی
عرض
غلط
##ana
معنی
قل
اطلاعات
میدونی
کلمه
تعطی
##ub
##وییت
ازین
سخته
اهنگ
##ma
الم
صبر
خبری
زور
##og
لیست
طلب
اوکی
سریع
##راین
اعدام
##ههه
جالب
چو
تصویر
بزنیم
##فتن
کیه
دیوار
##ye
فضای
لازم
نرم
شای
حالی
مشه
ah
حسینی
##اهیم
خمینی
بور
##یب
for
پسرا
##۰۰۰
##ell
نهای
میگیرم
رسیده
##ul
غرب
معرفی
براند
نظامی
ایشالا
نون
احترام
##خصوص
فامی
sad
##کته
هزینه
ظلم
##ink
افزایش
##وف
توه
##شتی
##gi
میبینی
خوردم
تبلی
##ass
##کشی
##باری
برمی
##ستگی
##لیه
برید
انر
قدم
بشر
خواهر
##وال
##انهای
مسیر
هرگز
شدید
on
سردار
پاسخ
بسیجی
عجب
مول
rez
بدیم
تخم
مرغ
دایر
برخورد
پیشنهاد
##گران
مقام
تکرار
##mm
اسرائی
سرنگونی
شرف
قبلا
##oz
ثابت
فصل
گفتی
دقیق
مذه
is
اذیت
##شونو
میتوان
##جع
##out
##زده
##ریق
برسه
مک
تاثیر
mam
سفید
ران
##ریکایی
میرن
عقب
شعر
##گن
تورو
اثر
##uc
ذهن
ساب
چک
شرم
مجبور
محم
خدمت
انگی
اللهم
ناز
##ami
درآ
متح
##ستون
نفهم
حیف
دخترا
پری
خوشب
سخن
ببخشید
##۷۳
شورای
تبلیغ
##کتات
خوزستان
جاوید
گربه
زندانی
میداد
۱۹
##me
میتونی
معت
##اسه
##دود
haj
مارو
اعتصاب
##nam
آفر
دوستم
جناب
شوهر
##ai
امریکا
همچنان
هزاره
فن
##راف
##خل
خرد
کثی
درمان
##میز
##مین
##بود
سازی
##sein
سیگار
سین
بیاید
##طر
##خوان
##سب
روان
##اران
میدهد
مب
دیکتات
شهادت
shah
میپر
شون
##۷۴
موه
##yy
خصوص
گور
##باب
سالها
گز
ماهی
حاضر
بزنی
عرب
##tt
##جن
official
بدبخت
حکم
طرفدار
##ویل
خلاصه
meh
##اییم
##داری
##ine
شجا
اومدن
واقعیت
نژاد
۱۸
اصفهان
##۶۸
الکی
بیار
میام
منطقه
انص
نمیش
ظریف
##eri
وع
ازت
گناه
##ظم
##ساد
مسی
معمو
##nn
ببینیم
قشنگه
بخور
آرامش
##وسی
آسی
امنی
##سس
ابت
##ill
##رار
دام
##زا
##hos
##جایی
کردین
صاحب
##لاف
##لل
میه
فرهنگ
انرژی
ناشناس
جذاب
خوابم
فوری
##حالی
##ورا
کنکور
دنیای
لطف
man
حدی
عدالت
احمد
##بات
مختلف
##imi
##دت
بهمن
##ئه
##rr
هوای
دیگری
میدی
##وتی
##تواند
اخیر
سیستم
ma
منظور
##شاد
دسته
##زیک
کثافت
بپر
##ark
بزر
##akh
های
نوع
مخصوص
تجمع
فاص
##زمان
##کنون
##سری
دعوت
اتحاد
حدود
af
جوانان
##ess
صن
ماند
مرز
fa
##۵۵
میفر
##ig
شخصیت
zahra
##لان
##bl
خیال
##۲۸
ارتش
مرت
شماها
سعید
##ستانی
حجم
نکنم
تره
لینک
میکردن
##۲۳
سرباز
عقل
عراق
نداشتم
##امین
خفه
ترم
دقت
حاک
خوشگل
ثبت
##صر
##ضاع
##سید
باشند
##تیش
##گاهی
فریاد
نده
بازیکن
##if
برجام
شماره
رع
دایرکت
##۷۰
##وندی
بالای
پرد
##تونو
لایک
بخر
طبق
قضیه
##بران
دستش
##osh
اتفاقا
##شوند
نود
میزنی
سلامت
توهین
##صب
سایت
تماش
بزرگترین
معلم
پز
##کیل
بارون
خیانت
استان
گاز
سرزم
میرسه
خج
مرده
کوچه
پرچم
ارا
نقش
##۷۶
ذوق
شادی
آرزو
ممنونم
گذاشتم
اوین
الع
پرسپولیس
صی
تقری
##لود
ریتوییت
اقتصاد
هواپ
پیج
میکنین
رشت
کشی
اروپا
عجل
لعنتی
##سر
برخی
مجاهد
##دین
##بیک
خند
##ادگی
##خواست
عبد
سوی
کله
##avi
تهی
دیگهای
۴۰
##خر
آغاز
جشن
امنیتی
سوری
امکان
##ook
نامه
ورزش
مف
اقا
معن
نابود
##ont
رونقی
یارو
محل
جنسی
تحت
##ویسم
##۴۴
عمومی
نقط
##خند
سم
فاصله
تقریبا
خوشحالم
##۳۳
##شاه
نمیتونه
سطح
شکن
##زشکی
شریف
عده
اسرائیل
قضا
میگر
خوندن
فرصت
۱۱
##جمه
آماده
بیمارستان
##egh
mor
تیکه
نشن
ندیدم
شهری
##ant
له
mas
az
mehr
۵۰
##ممم
انگلیسی
طی
خاصی
##قیم
##۲۵
بهشت
آموزش
باقی
##گوی
##een
##aaaa
##ئیت
تایید
دیدی
عملی
خشم
پور
reza
اینستاگرام
پناه
زر
حقیقتا
مبارزه
##جاوز
نمیخوام
اقد
##۳۱۳
ماسک
میخواستم
چهل
اخبار
سوخت
##ویم
##انا
مردمی
##ili
بابت
منتش
مدیریت
##arg
براشون
سرمایه
رسیدن
دند
صاد
##تن
موسی
##سک
ادع
دختره
مظلوم
شام
##بد
میگیرن
گذاشتن
##کرد
عض
رییس
su
##oor
اینج
بمون
فاطمه
خودشو
مگر
خودتو
سختی
mohammad
بیاین
##ima
بگین
سرت
her
##ution
شف
سل
##ارا
سلیم
پیاده
نفت
فای
بگن
اجر
اوضاع
##ray
ترامپ
##گذ
کشیدن
##اکی
##کک
##گل
##عود
کیری
مهاج
هند
میزد
سیر
##ستید
تشکر
##اتم
mim
خواستم
سام
##داف
##naz
گند
##صیر
اور
##ورد
سالم
برگرد
کودک
پلیس
میشیم
عالم
هارو
اخر
هام
روزا
##۶۳
گای
##ستر
خرو
##ban
طور
کره
منتشر
نماز
##bar
آورد
##فتر
##قب
کربلا
محب
تصور
سور
نماینده
##۹۴
##ئل
##نامه
میدونه
##۹۵
رنج
دزد
تلگرام
sal
##ترم
##تره
صند
##خدا
قبلی
شیط
بانک
##mo
##ids
کنتر
##۹۰
دوستام
مدل
عمی
##چار
##سازی
got۷official
##۶۴
آدمی
هرچ
اسمش
آروم
پرست
نشسته
عرز
بعضیا
زح
دریا
میمونه
##rev
زهرا
##ثال
##ith
قرن
un
##طل
دانلود
##ax
mahdi
##زاری
عادت
صال
خداوند
خدار
##si
درون
آمریکایی
میزار
لبیک
پذیر
##mar
##ادو
##ظاهر
##۶۵
ویدیو
بورس
انف
روحی
ترکیه
وات
نمیزن
سقوط
##ly
سلیمانی
نبودم
حرفی
باشین
لبخند
نوش
مکت
اوکراین
علاقه
صور
خرج
وظ
مریض
اشن
##zz
بخوابم
نبوده
en
##ازن
گوی
دفعه
##انو
کرم
##md
##ستیم
بنی
میگوید
گیری
زخم
بنظرم
##خواه
داع
##oud
moh
واکن
##ترک
بخورم
##۷۱
درگیر
عرزشی
##۳۰
ریپ
آپ
##ip
آری
##aaa
عدم
بگیرید
صحنه
اهمیت
میخورم
خواهش
احتمال
##قات
##۸۵
اعتق
##mah
##ومی
maryam
جما
لاین
##ادهای
اتفاقی
جمعیت
میکشه
راضی
هل
##ersian
نیروی
##خونه
ندارند
ارد
بازداشت
امثال
خلق
بمیرم
اغ
رحم
##int
مترو
سلط
ربطی
لحظ
وحشی
وال
میهن
عصر
بگیریم
##ستین
چن
هنر
پرواز
##شهر
بدبختی
پیشرفت
مهمه
روزهای
قرمز
##روف
##na
نیستیم
سروی
قات
سیم
##وشکر
نگو
میند
آبادان
کوه
##خواهی
کجاست
iranrev
پشمام
غیرت
همتون
اینهمه
neg
پزشکی
نخواهد
سبز
##ادا
iam
آبی
یادش
jav
صفحه
الا
##bi
مذهبی
همد
داخلی
خوندم
خداروشکر
##ندگی
فیلتر
فساد
برگشت
آنچه
##امت
کشید
توئیت
##کد
##ازیم
زاهد
چر
خاموش
خامنه
##ذی
همشون
میترسم
تظاهر
دوستی
هنوزم
اگ
##أی
وقتا
بخوره
روم
سرش
کاند
اقدام
چیزا
مهاجرت
یادتون
فعالیت
بزنن
##azi
اجباری
پروژه
یادت
re
آشنا
saeed
چاق
حز
ترا
##aba
ازشون
##ااااا
##ram
##تری
ناام
ذهنم
##تور
##یدر
تحلیل
بمان
کابل
بهار
خاط
##بش
نمیکنن
##ara
کشورهای
سنند
بشین
میگذره
##سیم
متع
##غد
##زدی
باشگاه
پیچ
اینقد
تای
میلیارد
باغ
مشهد
ترجی
سراغ
no
گشت
موافق
ریاست
##لیک
بیماری
ریخته
##ta
پزشک
دلش
دخت
##خود
بخونم
شیراز
کنترل
اسن
قصد
تسلیت
اساس
تست
میچ
##vi
##da
قربون
تلخ
ظرف
ریشه
تور
##کنی
yas
تلوی
ایشان
هدی
قشنگی
اعصاب
##ews
##لق
نهایت
amin
##oom
شناس
بشی
لحاظ
خوان
آفرین
دانشجوی
گوشه
##اون
۲۲
فارس
چهره
یخ
دارو
##امد
اربع
سنندج
بزرگی
سلی
##راج
##فند
راجع
##ادار
آذ
بوس
بجای
مود
##عف
سینه
جوون
افتادم
میدهم
##سل
##گاری
قیا
روایت
کانال
میو
سکس
##قق
بلوچستان
##یدئ
نمیبین
شانس
##ach
opl
عزیزان
نقطه
۱۷
نکردن
میشوند
##okht
پوست
ورود
شناخت
ساخته
تحویل
##لهای
##zadeh
##۹۳
دونه
##زیون
محدود
##amin
چندتا
##ئت
رها
خواهیم
مکتب
مزخ
رخ
تان
نخور
##بیت
جلیلی
آدمای
maj
مخصوصا
خودمم
بایدن
بمونه
خایه
مراسم
مقدس
هستش
عذ
طبیعی
oplran
مشکلی
##hani
زاهدان
سربازی
دول
##هاست
آخرش
سود
##۷۲
وس
سالگی
دستور
محبوب
پرداخت
مصرف
شغ
جانم
تروریست
مهند
##ary
کثیف
فرقی
زیاده
استی
نوشت
خجالت
وار
کوچک
er
جالبه
تجاوز
##خخ
##astam
##eyed
بگیری
بگیرن
##ادل
مرحله
##ud
##ism
##خانه
همدی
کوچیک
تهش
معتر
مرب
##داران
##فرج
##ثی
سلامتی
ضعی
درخت
رشته
طوری
سرویس
قرآن
نره
##ight
اسما
موزیک
##ومتی
قم
##رانی
ترجیح
دادی
جلسه
خواهند
نمیب
جماعت
اخلاق
هزاران
بخواد
چرت
دستی
اکنون
خشک
۲۶
##sam
##ولیک
اربعین
روزها
چهارشنبه
مای
##ویق
چگونه
miss
وص
تخت
##ind
قاب
fatemeh
همچنین
گاو
##rah
##ازده
ثانیه
نان
میاره
سرعت
##وندم
فامیل
##زر
وظی
محرم
وقته
شاهد
مشرو
##par
تفاوت
مریم
لغ
کاب
##ote
مصاح
فرمود
آدمها
stray
حرومزاده
دمو
بیخی
فد
مسئله
چیزایی
مثبت
قهوه
##نننن
##۸۴
##aran
فت
call
شنیدم
اکث
غل
##زیه
اختی
کافه
##ظیم
کشیده
##زین
کال
##ماج
ننه
##زل
##۶۲
میرفت
khan
##sm
برع
قاط
تفکر
جبه
مسافر
گست
شیرین
بگیم
کدام
سنگین
هنگ
سح
سرزمین
رشد
مستقیم
آق
##oll
نمیشود
بکش
دعوا
صرفا
عی
##اتیک
##۹۲
بکنم
پایی
تولدت
الفرج
وصل
ترسن
کسشر
نیمه
واسم
رعایت
جنس
یون
##bas
زحمت
ban
میگفتن
راهی
##ouri
بخوان
##شکی
نمیخواد
عجیبه
rah
آفت
ایت
آمار
پارک
جرم
##دل
##ربای
##ust
بغض
##۸۳
رست
استخ
معترض
##ph
hamid
حرفهای
فراخوان
##oun
##کنه
مطمئن
برده
شعور
##ooz
میمون
صادر
قبر
دموکر
خال
زبون
لولیک
پید
##شیر
تاک
میگیم
هاشون
خرم
بسیج
انتقام
چار
to
##ool
ناد
mil
most
ید
کاه
فوق
بفرم
۱۶
بردن
ویژه
اونوقت
دیکتاتور
زشت
واح
##end
اسماعی
زل
فیک
##ونن
پسره
عاق
ببینی
دغد
##راحی
گوشت
sep
زدی
بیشرف
احمدی
فدای
تحصی
بیو
کشتن
منف
راستی
نمایند
##۵۰
همزمان
بدترین
ناخ
قیافه
فرهنگی
نذ
ون
نمونه
##ابع
فکری
تصوی
مسلمان
میگو
##ریتی
خورشید
##قیر
##ba
صادق
دچار
میبر
محبت
اکثر
مربوط
agh
##ءالله
سوریه
##ane
##ساله
##olution
قدیمی
مادرم
اعتقاد
کافیه
##شمند
اقای
همسایه
علت
دون
بهمون
نکته
##ni
کردهاند
##حسین
درخواست
شاخ
دختری
گری
سرچ
محسن
سوز
اجرا
شش
ایمان
تهدید
گرامی
برمیگ
##ym
انگلیس
آمده
##ووو
الی
جفت
فاز
مصاحبه
it
##zade
نمیره
پاکستان
دختران
محک
توماج
اوج
میدیم
ترند
##olf
برامون
رأی
##اسد
دوسش
##ومه
غصه
دیدار
بنویس
رمز
تز
بتونم
kids
استع
مانند
رود
۲۰۰
مرکز
کیان
ظاه
نگیر
##ue
وجد
مفت
خاطره
##بیل
##۶۱
قرارد
هموطن
##گگ
##۱۴۰۰
##اشد
##jad
شمال
##زید
چندین
کنسرت
حافظ
##۹۷
عک
بازن
##زاد
میخونم
##کدوم
##ابد
گوز
حسابی
beh
انگشت
واکنش
میکشم
##دها
##ars
نداد
موشک
میتونید
##اسیون
فقر
قطعی
حکومتی
کشتار
رسیدم
صلاح
##برد
درمی
بیچ
اینکار
شفاف
سا
۸۰
برگزار
ندارید
متنفرم
تقد
روانی
قضاوت
پروف
رسمی
جاش
عباس
خویش
##اااااااا
موفقیت
چت
ترسناک
تظاهرات
##لیون
فض
وب
##وندا
میذار
همینطور
جنایتکار
بسه
چیست
تبریز
نکنیم
مقای
دادند
بررسی
##الش
iranrevolution
خودکشی
آزمون
صالحی
ممنوع
خواهرم
نمیفهمم
بذارم
##ضه
##جون
اشاره
بخواب
فران
##uck
کلاب
مزدور
معلومه
##یمه
روزن
اینجور
نبودن
om
میزان
الانم
هاست
زمینه
میگفتم
بت
شیعه
##شتری
##۲۰۰
نع
alireza
هدیه
۲۸
جبهه
##شونه
منطق
باری
میزنیم
##انیا
بعدا
وعده
ahmad
##۲۰۲۲
هاتون
##ومن
سلب
قاتل
nas
رفتیم
میگید
ظهر
واست
me
مراقب
##fan
عصبانی
##شناس
اتو
##ابط
دبیر
راح
##ارید
جنده
نکنین
موسیقی
توپ
زنی
مشترک
##ki
تخریب
مسائل
دولتی
بشیم
متحد
ایرانیان
افسرد
وحدت
عضو
##itt
زینب
اینایی
استر
تلویزیون
برف
میکردیم
نرس
hossein
۹۹
متفاوت
کامنت
حوزه
##خه
اسک
ساک
mostaf
naz
تومان
دینی
محی
مسئولین
چنان
##ندن
بودجه
##za
منفی
black
قربانی
مردان
اینطور
##ردین
شیرینی
ظاهر
بیگ
حسرت
gol
کاربر
##art
ایگن
میگویند
##ne
علاق
ظه
اختلاف
پیروز
میدهند
مدار
ادبی
مهربون
سوار
دای
کیوت
داشتی
حدیث
دوربین
##خصص
##anj
چرخ
بدان
وظیفه
بام
کیفیت
عالیه
سبک
##aneh
تحقی
مسئولی
##طوره
آنان
##اریم
ash
ev
##amir
داعش
اونقدر
##جانی
##one
ندید
۶۰
دریافت
##dd
رجوی
دلی
##ce
کرون
سایبری
##نوشت
تعطیل
##اکره
اداره
هرو
##orl
میتونن
##شده
میگذ
پولی
باهاشون
نبین
تخمی
زودی
##اهند
نشست
تند
دستگاه
کاندید
##mon
مناسب
قدیم
نویس
##reza
نیستند
اکبر
سان
امور
##لیف
##یمان
بیچاره
میای
دربی
ملا
جس
مقایسه
##زرگ
کول
عام
##ost
میریم
عذاب
مسلم
خریدم
دفتر
پایه
بخشی
معاون
خواسته
vote
باخت
هوایی
اث
وم
سراسر
چایی
بازگ
##۱۷
sm
محتو
مغزم
##own
حزب
ارزشی
نقد
بخرید
مذاکره
محترم
لام
##pour
نوبت
لپ
رگ
بیشتری
روابط
##ann
min
wh
شار
##قف
##خیر
##الیا
واب
سند
##ناک
طولانی
##mi
خرداد
همینجوری
تشکیل
نیوم
معروف
میبینه
آتیش
ضمن
اونو
##ich
خارجه
جیب
سرو
عامل
رقص
بخرم
سالی
اساسی
##ولوژی
##گا
بیای
##۳۴
ایده
##وک
##ربایجان
صیانت
پیامبر
##امینی
مجاهدین
اولی
اینارو
دندون
نمایش
##اصل
چراغ
##ex
ننگ
آسمان
غری
مانده
hero
##اورد
##وبی
##۱۹۸
##ارات
بیخیال
سایه
بکنه
ماله
امین
نمیشد
باهات
هرچه
آوردن
شیخ
۵۷
##دددد
دشمنان
گوشیم
مسعود
##اقی
شهدا
سابق
برعکس
خبرنگ
مناف
غرق
باورم
منطقی
##پس
ازادی
##aei
سرخ
##fi
کسکش
کارو
رسما
ببره
غمگین
منظورم
خواهی
تد
ad
##yar
##ویسی
##زز
my
کلام
ادب
دادگاه
ابد
##بک
حسینیم
##وتین
اوه
بگذ
رفتی
##ahid
##گرم
##باف
جمعی
دلتنگی
تاج
##غم
##ورش
##وندن
پشیم
##سیون
##ندگان
پیت
۹۰
دوستت
مزخرف
قلم
برانداز
موس
جهنم
##پور
میتواند
خشون
##abi
تلف
مشغ
صفر
##۲۰۲۱
شدهاند
کسش
##dad
نباشید
##عتی
##mas
آلمان
نشستم
بگذار
عط
بزرگوار
باهام
فکت
خوبیه
mon
سحر
محص
برین
mir
ناموس
##ere
کشتی
##یمون
ترکیب
ویدئ
##kar
ay
##fr
سرنوشت
هواپیم
آرزوی
همکاری
نمیتونی
گلوله
تمرین
گول
تاریخی
##dar
بنظر
هروقت
حرام
##son
شلیک
##اندن
دلتنگ
میدونن
mohamad
##ازند
نگهبان
مصد
خن
بیشع
sara
۹۸
ra
۲۱
##مانی
دانشجو
روزنامه
##خیص
خودرو
کارم
نداشتن
خاور
پنجره
حامی
صلح
خوشحالی
رحمت
ستم
آیت
##ایان
کشوری
روب
کمپ
افسردگی
مهساامینی
سفارش
لایو
توهم
کاهش
شیم
قالی
دما
استار
گذر
تروریستی
رز
##منی
##فون
##oj
قانونی
##فف
##ox
فند
##sal
هات
شهروند
میگیریم
کاپ
##ریا
روزگار
شلوار
##کتی
بهداشت
##ادث
تار
غی
کسب
شماست
نوشتم
رفع
##ka
ذره
میومد
ببینه
رمض
##طلب
راجب
ehs
دادیم
همسر
دیپ
احتی
وف
نامو
##زو
اشغال
میبره
محیط
ندیده
has
خوشبخت
همتی
##ایع
۷۰
ویروس
خواهم
انشا
بدست
خشونت
sab
##حالا
موج
برکت
خیلیا
جاده
طن
شوند
توافق
امر
سلبریتی
##yp
ناه
##الب
میزنید
##oooo
##ous
محاک
نح
fer
##واز
دمت
پنه
امان
فهمید
saj
عروسی
آخوندی
جاک
آلب
هممون
تمامی
بتر
نای
##ژن
بکشم
اشنویه
اخلا
معی
##girl
سراوان
طلا
پسری
یجوری
##کیه
##یل
گویا
نوشتن
میدونید
سهم
پارت
سپاس
علمی
پیو
شکسته
افکار
انداز
اختیار
حواس
ریش
عدد
وط
یاس
بالاتر
غربی
کلاه
##جار
عجیبی
موند
بزرگتر
شنیدن
یادمه
مى
کودکان
قرارداد
تقصیر
تض
پاییز
##په
ارشد
##۹۶
تایملاین
آنکه
شبی
میشناس
نظرتون
دود
خاطرات
بزارم
طریق
آسیب
ماج
##فس
army
##غر
لیگ
##شها
bab
لاک
نشین
جهاد
همکار
۱۹۹
کردستان
آورده
دغدغه
ناک
sin
تشخیص
ضربه
##شناسی
غریب
روزای
had
گزینه
دانشجویان
bahar
نصب
منافع
زخمی
moj
##رضا
دستت
معمولا
پسرم
##ih
مجمو
##اییه
##جهی
##لر
حیوان
##tab
اعم
حسی
dokht
هستین
میدید
کمر
اعضای
بنویسم
##ick
##iam
تعی
##حم
eb
le
مخاط
ظهور
##tm
##۰۴
فاج
##the
واحد
خلی
مذاکر
مبارکه
محاکمه
es
نیرو
مواد
صلو
درجه
سیما
توو
کارش
فرانسه
##نگه
حواست
میخواهد
قاضی
##فش
بانو
۲۳
##واره
خطاب
via
هرکسی
گا
نمیم
محکم
نیازی
توقع
تاحالا
قرص
ابی
منابع
milad
اینجوریه
رنگی
##التی
نمیدن
آزار
تعیین
انگیز
کیم
com
شبا
کارهای
تربیت
##ررر
پارسال
##مونو
تکلیف
ظاهرا
##مورد
اصول
##پایی
##ahl
موهای
چای
مهمترین
طالب
sol
امتی
یکبار
گرون
نمیکردم
شیفت
##ghan
##یز
جزو
۳۱۳
لغو
نمیدم
##ke
شل
pari
انش
میزدم
دیدیم
محصول
ستاره
پنجاه
##گرا
فرود
##ردیم
بهانه
علوم
مچ
آگاه
لخت
هنرم
کمه
ارائه
##ریح
میرفتم
##طرف
افرادی
عملیات
##app
you
قهرم
گوگل
##pp
زیباست
عذر
##آوری
خودشان
دراز
توجی
موندم
اولش
سرکار
اجرای
em
##boy
صندوق
کپی
مرک
##khan
##ber
##پز
##stax
صداش
قائ
del
موقعیت
کریمی
دایی
##امله
چینی
دعو
قوم
محکوم
##ارکت
هستهای
liv
مشغول
##ونو
##بند
شکنجه
میباشد
کانادا
##رهای
طرز
##۱۶
##انده
##میل
مسلح
هامون
نابودی
خائ
هرکس
##hh
##نمایی
اعتراف
درآمد
چهارم
شجاع
میخام
alirez
بخوام
ریز
##te
عربی
مساب
بینی
سیب
رییسی
آنلاین
فول
ترور
##درس
فرزندان
میکشن
فش
تجزیه
محض
روزم
قا
ساعته
چیزای
لاز
کجای
لاس
arash
نمیشم
بگا
وسی
مذاکرات
هیت
وجدان
##iy
بیاره
##سون
اطراف
میگیری
##اشیه
ضرب
تامین
درمورد
موتور
فرض
بلی
میذارم
معمولی
شیشه
میشدم
بات
خستگی
this
برند
##رکز
##۸۲
لش
##نر
ندادن
دوستای
فریب
۲۰۱
بیارم
##ونهای
سفره
هوس
تأ
hamed
کیلو
##کری
بازگشت
##خور
دزدی
سلاح
ناراحتی
##ولد
راحتی
##المه
عصبی
##کنم
دهد
آزم
توس
موی
۰۰
ترجمه
##shah
آدمایی
عمیق
مردی
جاویدشاه
##ههههه
نوید
میخورن
آذربایجان
حساس
شهرد
##لین
اسنپ
نفو
اونجایی
##۲۰۲۰
##نام
اسل
یبار
موندن
توام
##بزرگ
دوز
مولا
ارشاد
جدیدا
قو
بهر
تماس
میرسد
میبینید
دستگیر
اصلاحات
kam
باران
خصوصی
##غذ
بیخ
##ستند
##چرا
یوتی
##فری
kar
مغازه
##ارف
ازتون
یکشنبه
##persian
تماشا
نشدم
پرسید
مض
کادو
میخوری
انگیزه
اونور
##fa
##نیه
##اتونو
جبران
##eel
اخراج
معنای
همدیگه
قالیباف
##تونه
##ساعت
br
##min
##هاید
نیاد
جیم
خطرناک
ضعیف
زرد
رسول
نوتی
الگوی
تعجب
##۸۱
بحران
پنجشنبه
##monstax
##آم
##ئم
rey
شغل
بسیاری
##گذاری
mehdi
##بب
پرونده
کرج
عمرم
شت
کصکش
iranian
فاسد
پوتین
مسئولیت
نمک
نکنی
مبت
سرما
بکشه
سواد
##ha
##ice
داش
دیپلم
##بط
خلوت
کجایی
بچگی
انتشار
##جنگ
آدمهای
برنده
اینجاست
##ایتی
##عع
officialmonstax
##اتش
نفرت
قوان
ماهه
سبزی
صورتی
##add
نقاشی
##savi
انتقال
عربستان
شیش
خس
omid
هیچکدوم
##نوان
##دافع
رادی
ارسال
سار
##اجه
چاپ
میزنند
معص
لیاقت
##نس
نفری
سوراخ
رت
##عهد
suho
هرروز
آفتاب
mob
ehsan
پولدار
نمیکنی
ابراهیم
##باد
کسخل
دوری
بزنین
توئی
گونه
mahd
روند
##ثار
شری
##راحت
مردن
انسانیت
داشتند
کلیپ
##انگ
طراحی
##اشه
lov
توانایی
نمود
شجاعت
##شاهی
##اداری
nik
دوی
حرص
خاله
معظم
callm
میبرم
حیو
##aar
نفع
اینست
گرفتی
زندگیت
اونها
درگیری
همگی
شلوغ
مشکی
ثرو
مهمون
ماجرا
ستاد
##orld
اومدی
##ome
##with
##ube
نجفی
تعویق
##میمی
free
ریختن
اینترن
حرفا
##ونیم
مور
مدافع
ریپورت
نمیکنیم
art
##ira
انتقاد
ایی
##زان
سعدی
واض
ناپ
eli
##عر
zahr
وین
ضرر
توص
راس
غلطی
نمیخوره
علاوه
میفهمم
مهمونی
##oosh
he
##cl
درص
mat
کمال
میکردی
عمه
خفن
امیدوار
حمید
اسپی
امضا
پان
تابستون
mohs
شاع
موق
کیک
ریده
##irl
باحال
گشن
معم
مسجد
بمیر
##یییییییی
کوین
ایگنور
منص
جواد
مایه
الن
مشارکت
##qu
مثه
##la
چادر
پدرم
جدیدی
فنا
##br
مقاب
ببند
##اصر
mamad
##rez
##۱۱۰
##ازید
عاقبت
محس
کصشر
قوانین
هش
بذارید
bar
sahar
نماد
امتیاز
##ps
##ern
yout
میآید
نباشد
اتفاقات
حاصل
عزت
##o۰
pe
نمره
ساکت
لق
شفافیت
مسیح
نمایندگان
chan
##ort
نتر
دلیلی
mb
ربط
رئ
##۹۱
گنده
کیا
کارگر
هویت
مکان
رضایی
بارها
منبع
##yn
av
##ava
وزن
جاه
هری
##arges
برج
بماند
فاجعه
شایدم
فایده
اکسو
زدیم
san
توصیه
##ie
ضعف
انفجار
سالهای
##istan
نشود
be
##اباد
قوه
خداح
صلاحیت
##۴۸
چوب
شهرهای
##اشتم
ارباب
مگ
نن
ناراحتم
one
فردی
بشینم
میکش
mad
شبه
میکردند
##ord
میرود
آوات
کشف
میدادم
اشتر
روست
صلوات
خوبم
##eyn
دگر
##نجی
متروپل
اله
پوشش
نباشی
##دیت
یدونه
دخترم
آرمی
##لاک
هرجا
روغ
کارای
حضوری
شیطان
won
ود
اض
گش
میگین
فرشته
عبدال
نمیکند
کفش
میا
راننده
نفهمیدم
real
and
نتونستم
ملل
شاهزاده
شکایت
پیمان
بمب
نرو
sor
##emi
نمیتوان
منح
مطلب
انصاف
آید
نیک
تولدم
##رایی
##فکر
ویژ
##یمو
مربی
واج
دمکر
##۵۸
##اریان
میریزه
سیستان
نمیتونن
میخوایم
کارمند
##ینو
کصخل
نشدن
##had
##انهی
یوتیوب
بدونم
نوری
##هزار
هیجان
غنی
خونین
##afar
##aki
فتنه
مافی
هه
دوش
سایر
هنرمند
هرد
میذاره
seyed
سمی
بفرمایید
هرچند
احساسات
شهرستان
گفتند
##ارض
##be
مطالعه
آرمان
قبلش
فروردین
وقتایی
بجز
عشقی
سیزده
mm
فروشی
فلسط
سیل
بقی
اید
بابای
مزه
وحشتن
کریم
میبینیم
تمیز
خوشگله
داداشم
بیه
kai
##ff
mohsen
میلاد
گفتگو
تاریکی
هیشکی
جذب
تت
مشخصه
ذات
تورم
میمیرم
آغوش
میگیرد
حرفای
بستن
##afi
فرستاده
میتونستم
youtube
صدر
گره
مجاز
نذار
میفهم
##pink
ریدن
ساختن
دوشنبه
##ورو
قصه
اسلحه
##اشاه
احتیاج
شرط
##اشته
آسمون
دیوان
دخترای
##وشی
##لال
کوفت
پادشاهی
شرمنده
##hr
##بالی
تزریق
##کات
وان
ghaz
میفرو
رایگان
میتونیم
گذاری
مطرح
##ahan
##ahi
##reat
فالور
رابط
میفرم
عاشورا
نیازمند
چشمم
نسخه
##روب
##pl
نقل
سنی
وه
جایگاه
خاورمی
##iri
جایزه
جاس
نمیرسه
حامد
##باز
اسیر
حاشیه
##kan
##رافت
بزارید
mari
بندی
##ky
مثال
##ity
میشید
اونج
هماه
بخونید
میدین
آخوندا
##تتتت
منتظرم
سنت
##pt
بق
دیدین
mu
عروس
##fat
ak
آنقدر
پیک
المل
۲۷
کوچولو
##baz
رسانههای
اصرار
میگرفت
اسفند
۵۰۰
ساح
آرایش
خلاف
##ازد
اسماعیل
no۲
بشید
شهدای
تحصیل
ماهم
پاسداران
کشیدم
آنف
ادبیات
تری
بیشتره
گلی
##اشتن
دردن
التم
مرکزی
##اااااا
طوف
خوشمزه
##van
مهندس
ذکر
نداده
جنبش
میفهمی
سخنرانی
وایی
##ena
##army
مطالبه
زمینی
javad
بستنی
erfan
##بازی
انح
فلانی
ببرم
سرنگون
سخنگ
اشتباهی
میارن
سلطان
شارژ
اکان
سینگ
اهواز
یافت
##ردد
پژ
پیتزا
کوب
اعتراضی
##اتمی
انداختن
##her
شبانه
##سد
شمام
نمیذ
نزنید
بتونه
پنهان
داو
براندازی
##اشونو
سرط
روت
خف
برگشتم
گاه
shab
شکم
هواپیمای
جلاد
##ug
##aye
ادما
##ion
عکسی
ناهار
بخوری
نرخ
##ضاح
صحی
##ونید
##ویز
##اطق
هواپیما
حادث
پاشو
دوستش
توسعه
انسانها
انشالله
رید
پایت
##اشم
یکیو
میخونه
دیوانه
##۱۴۰۱
ژاپ
توصی
##hammad
ضر
نزار
رسانهای
##einab
so
خداحافظ
میدیدم
میشین
هربار
کورد
cr
آخونده
##jj
فلس
هدایت
کشاور
##inn
##otes
##اختی
تحقیق
##ooo
دوت
برنام
شید
رتبه
تصویب
گران
wonho
han
دیوونه
##وام
##aam
میزند
هعی
##ختن
بخند
کارا
بگذره
هس
توئیتر
dav
##ott
مولانا
نمیدونه
جع
سوپر
آور
##for
اظه
یاری
##yeol
##chi
##beh
وحشت
جری
##per
لامصب
##وشم
تهیونگ
کلمات
صدام
مدا
یچی
##aq
میزارم
ag
مهاباد
طبیعت
واسش
التماس
##yl
شنیده
صنعت
شناسایی
##kk
شاءالله
موافقم
##زنی
صهی
حسود
غذای
مانع
##azl
تایپ
واژه
میوه
توجیه
شمالی
ببینن
آلبوم
بیایید
دموکراسی
دک
blu
##aan
gr
bb
نگفت
نمیگم
هموط
رک
##arm
پشتی
خروج
##ation
لال
نمیکنید
##شنال
نیومده
خلیج
##پول
جلوگیری
آشغال
میخور
چس
نزد
سانس
تگ
قهرمانی
۸۸
##صورت
ارم
وام
همر
##کیشن
vahid
##تمند
زیست
متوقف
بخوای
فتح
۲۰۲۲
خبرنگار
لجن
##چراغ
اقتدار
محسوب
نمیکرد
هج
علیک
فایل
بیبی
اسکر
گروهی
بفهم
پرده
فقیه
کارگران
##لای
saman
۲۹
##رخه
درستی
روغن
هاشمی
تقدیم
قهر
پفی
hani
##۵۹
##ve
ملکه
گرسن
نمیدونستم
ریاضی
##ذه
موارد
وقتشه
##ییییی
سران
حاکمیت
لم
تحقیر
##day
برگردم
شوم
##شونم
اردی
انتخاباتیم
راهنمایی
کات
مقدار
خودشونو
چکار
نگرانی
اطرافی
میذارن
##eet
حالش
فالوور
##mn
عیدی
مزدوران
##bal
سینما
لر
آمین
##ماه
اخلاقی
دیدید
##نیا
محمود
##ئو
حلال
##ever
dont
##۴۳
کنسل
آگاهی
##ضل
تاکید
حموم
کتک
خیلیها
پنجشیر
خدان
مدام
مقابله
نهاد
##دایی
bah
بعنوان
عطر
تلفن
عرضه
##شین
ماها
استریم
red
تمرکز
هشدار
pahl
##shid
هاوس
رقم
##فلک
بستگی
مینویسم
bit
بدر
لج
مطمئنم
نقشه
آت
##zh
گوهی
##ستری
صل
##گزاری
لاشی
تکراری
ولش
##cr
مادرش
کصش
همینو
خوشی
##جیت
میجنگ
##ولا
استق
گیت
جامع
کوی
بعضیها
##بوس
نشانه
تاپ
or
##ix
کلید
بودید
بپی
مناسبت
استاند
ابراز
بعید
روس
مدتها
قض
کاره
##aman
دس
##اما
ممد
##۵۶
بنگ
بغلم
حبی
مسکن
##pe
اشکال
are
خبره
##ینژاد
نمیدونی
##ابری
##ازگی
nil
هنگام
استراحت
وابسته
مخاطب
نظری
##۵۷
صمیمی
##گویی
##jan
##سگ
جوش
ادعای
قص
##افل
##edi
کونی
##تیکه
روحت
اردیبه
behr
خلاص
مناطق
مواظ
##ady
منافق
میمان
فعلی
گوس
##اهید
##ایات
نکنن
##کهای
بنزین
##هههههههه
نرمال
fight
##اینده
blackpink
بخوریم
چسب
خاورمیانه
##ong
نشستن
میسوزه
یمن
دانشج
زنج
دیکتاتوری
گوگ
میخاد
یزد
شاهچراغ
میفته
بکنید
##sar
مادرج
زا
آدرس
ناله
جیغ
جنگی
##گانه
##alek
لازمه
سخنگوی
##de
چیو
مادری
رل
shahr
ویدئو
##اهده
##ver
##ایق
امت
باره
مشاور
سالگرد
آبادی
بفرو
محروم
##ارهای
هول
صهیونی
راز
۲۰۲۱
tr
امی
دایره
پره
مفه
اصط
##sn
دعای
نوروز
کمبود
فضا
##بول
sadegh
زیارت
براى
کیل
شکلی
میخورد
حاکم
آزمایش
سابقه
عمامه
دردناک
میبینن
زندانیان
sae
انو
##sad
عرف
##کال
مامور
happ
بهتری
##ireza
تحریمها
ایمی
نیستید
هیئت
##ادیه
اشتراک
جنوب
پایتخت
##بتی
##esam
بیفته
##کوین
سره
معج
جرات
کاس
##مینی
اغتش
##هاش
ta
آینه
##meh
گلو
بردار
##ویید
moon
خوشبختی
##ربی
##otests
تویت
میشناسم
قاطی
موهام
ادعا
فردای
اولا
zeinab
توروخدا
بمی
غروب
کباب
میخند
دهنت
لرز
عقد
یسری
مهمان
رشتو
تبلیغات
مهد
پایگاه
عدهای
قلبی
صاف
##anin
موقعی
تهیه
##رافیک
ریزی
خائن
یح
خز
براد
جاج
پاچه
تیپ
##هری
##orn
دلتون
نیومد
مرداد
پریود
نهایی
اسکرین
دماغ
مبل
سکته
پیرم
##ممممم
تکون
خوری
میخواید
همت
ریپل
اسب
محدودیت
راستش
##گانی
##ایز
جانی
لز
##غیر
اکثرا
متخصص
دریغ
زار
مخالفت
عکسای
هرم
set
##dy
مهربان
وحشتناک
دوزاری
بکشید
مسافرت
جهادی
لیوان
خونمون
##کورد
ادا
طبقه
پارتی
##mat
گهی
عبور
##ck
##زات
عملکرد
##گون
قاچ
ناموسا
مطل
معذ
شصت
گفتیم
##by
##کست
iranpr
فنی
آنجا
دسترسی
هفتاد
نچ
شبکههای
##ime
رضاشاه
میدادن
##ayat
خوردی
اغتشاش
بینالم
یل
زیرا
عاشقانه
##نفر
روزانه
بکنیم
##۴۰
##گها
ابرو
##بره
##درصد
khod
ایه
لحظهای
جزئی
##ساز
قیامت
اولویت
##فای
فیس
درحالی
شاش
شوق
فارغ
مستند
ویس
هار
برتر
##پرست
نعمت
الآن
گرفتیم
ژان
خوار
زیبای
بعدم
انتظامی
si
abbas
سعودی
نداشتیم
شات
##sol
زشته
یادآوری
تئ
روسی
narges
دیت
fuck
میخر
ناامید
مدتی
##intl
not
ایراد
sadat
واضح
شاعر
شوید
موب
litt
##ale
میخواین
##avan
شهیدان
##لاس
محله
بختی
عزیزی
مواظب
خونو
پیگیری
مدرک
بلایی
دومی
about
kim
##shi
بازیگر
جونگ
ph
چالش
بعدشم
لنگ
##راینی
فندوم
##ussa
اسرایی
هشتک
##عات
ایرانیها
##زله
##ختم
de
##رض
##ain
توییتهای
حادثه
فاطمی
شرق
دردی
خواننده
ببرید
اینکارو
مزاح
چهلم
تمامیت
مستقل
۴۳
پلو
خاتمی
جونم
برسم
بدونید
قشر
مفید
فرودگاه
##۲۷
sp
شهریور
دلس
مشتری
نفه
##عب
##۵۳
new
##ارتی
سانسور
اینترنشنال
پاید
iranintl
##جوان
مقصر
##olfazl
رپ
مواجه
هدر
همینقدر
رمضان
رسم
نکردی
میلیونی
متاسفم
محمدی
mj
##اژ
اکثریت
##عد
نمیبینم
امیدی
نتای
لااقل
ندادم
سلیقه
ایول
dar
نخست
تپ
دهند
بکنی
اتوبوس
ایرانه
هزارهها
وک
تاریک
abd
سفارت
mort
##۵۴
۳۰۰
خواهان
ro
لویی
##fer
اردیبهشت
جاکش
دلها
feel
بیشترین
ملک
مدعی
اسپیس
##راح
حماقت
دلمون
زدند
قف
iranprotests
سردرد
##وقی
روسری
برداشته
پروفایل
استارت
توست
اقوام
تقسیم
سوپ
هشتاد
شهرداری
##ection
ساکن
##ct
خستم
نگفتم
##اته
tah
##xx
گسترده
کاربران
##world
بمونم
کارشناس
اندر
بمو
##oush
مسئولان
ظرفیت
اثبات
بذاره
انواع
##۰۲
میبرد
نری
اینگونه
خونده
خرابه
صندلی
نشم
##ild
دوازده
داغون
گویی
فق
##ame
##لند
مقاله
persian
دارای
پرورش
عظ
قانع
عاقل
همیش
فدر
شدین
##cy
na
عرق
##باله
بردم
پفیوز
منتظ
##ush
ختم
نگا
بفرست
##mir
مقدم
عموم
##erm
سرود
میوفته
حلقه
باند
میمی
بسا
میندازه
عاشقی
جوانی
##دادی
##شکار
نشر
شکلات
ازون
##جریان
مینوی
جالبی
اندیشه
بصیر
نفوذ
گن
گروههای
se
میخواهند
##نتا
##ty
وخ
رائ
##iiiii
##up
رانندگی
نصی
منتقل
ایستاده
##لمون
عوضی
خدمات
اعصابم
بهره
پام
بیکار
##زیم
دلایل
بفرستم
هموطنان
اینبار
عس
اضطر
بنام
واتسا
درحال
بدنم
اعمال
افتادن
دهنده
کامی
محت
##ینش
##oul
حماسه
##hi
اولیه
##ستها
رسانی
##کارم
دبیرستان
##اردی
یادمون
جنوبی
##کننده
بدو
##گذار
بوم
صوتی
##خان
اصطلاح
غارت
متنفر
##اسان
تنه
##جیتال
بلاخره
feeling
##ehran
##وجی
یواش
##امش
مرتیکه
مهمتر
##deh
محو
##اندازی
قربونت
اهداف
کسخ
تراپی
##ataj
##che
علام
نوین
اخرین
##زارم
##ison
##نای
نازنین
گیم
ویژگی
اکانتم
نرفته
مادرت
هرچیزی
ماجر
لاری
سرطان
دهید
نتایج
نبودی
asal
آوردم
##۸۹
##الات
##ussain
نیو
نمیدونن
##moh
جاری
##داشتی
منزل
شمارو
برگرده
بازنش
نمیکنند
نباشم
ped
ss
فلا
هوش
خاند
آژ
جلب
فرستاد
##پو
آرا
##alam
kian
##اویر
تحریک
بزودی
کاخ
##zd
نمیرم
آزاده
پشیمون
میارم
طلاق
همب
نبرد
۹۶
##pn
خودتان
نمیدانم
دخالت
##era
##now
##shad
کوروش
تماشایی
tal
##۰۳
اشرف
پیشم
##لوع
آموزشی
بیتکوین
غمگ
zar
##ogh
برخ
گوسفند
خیابانها
آلود
غریبه
اسات
یق
تیک
##del
##گردان
جین
##آور
داشتید
درخ
رقابت
روضه
دوبار
اراده
رئال
##سنت
پین
don
مادران
##جای
سرشون
##شنگ
خیره
##ایشی
دلخو
##باش
زباله
تتو
کصخ
تسلیم
##جیک
ps
طوفان
##ریش
##شوب
نرفتم
بودنش
لبنان
##isi
پرا
##آمد
وجه
نباشیم
##aghi
قاطع
saeid
##heil
گلم
##رداد
چشمام
نظرت
رادیو
نفره
کاغذ
##gar
آقایون
شامل
دیقه
##ayan
آذر
همچون
همونجا
us
##پار
کادر
حدس
خبرگزاری
پرسیدم
آمدن
بمولا
برگزاری
لگ
انداخته
موز
##فیف
##elike
رائفی
زلزله
دومین
مرور
مالیات
آخوندها
سرتون
همینجا
خودمان
خودتونو
##فیه
یکیشون
##نمی
فین
قور
livelike
درستش
##rael
زمستون
هوادار
انج
مینو
##tor
masoud
وکیل
ساختمان
تام
##sab
حداک
سوخته
موسوی
بیشعور
چیزیه
##ادمی
راض
کردنش
ابله
ll
گرگ
حیات
اروپایی
اونقد
hesam
##وج
##mt
شرایطی
##وتو
##ida
ازاد
مشا
abolfazl
dor
mi
واتساپ
خش
پادشاه
##ond
ms
livelikeali
##ستانه
شیعی
پیرفلک
غافل
خریده
پلا
مهمی
علیرضا
چل
توصیف
##ویش
بکنن
دز
افسرده
بگیرد
۴۲
chanyeol
نشید
نویسنده
اوکراینی
وت
روحیه
چنگ
تنظیم
میبرن
گود
کچ
آنفالو
حرمت
سرمون
چهارتا
غذایی
خوشت
برنج
خودی
اوقات
بیانیه
گام
ریپلای
sir
##شویی
بودین
##۲۰۰۰
##avid
evin
یافته
باطل
میکشید
##اکشن
اخوند
##ze
برادران
استن
الب
عمق
اروم
استعداد
کنارش
الف
مجید
##urd
##gr
سپاهی
توییتری
##ردید
بهشتی
فرمودند
ظالم
بفرستید
رهایی
صحیح
فایزر
##چال
برمید
bi
دمکراتیک
گوشم
درا
۲۰۲۰
hel
no۲ir
نمونده
ابزار
mmd
آبرو
##میلی
پزشکان
یهویی
بیداری
dark
نگفته
پاری
زیباترین
قفل
##کب
نمیگیره
##پت
##قدم
کابوس
تبعی
گرما
نخواست
دامن
رستوران
اساتید
بە
تصاویر
شنید
سنتی
دویست
majid
ببینین
امیرالم
##ادف
ابن
بسم
##tr
صلی
رضایت
##ody
reyhan
ha
مشاهده
سقف
قطر
##ارین
شاهنش
توییتای
بخونه
ثروت
محلی
##چین
بفهمه
افرین
ستی
مجری
by
نادر
حرفت
عمیقا
##ile
قاچاق
sun
تاکسی
معرفت
ندارین
##للی
نوتیف
بنداز
هور
##ؤمن
شدیدا
دستشون
قابلیت
بازنشر
رفاق
##قابل
##گفت
##ired
وسیله
حقیقی
مالک
تویتر
هک
##omi
دستاورد
مدیران
mem
##ایند
##ههای
تتلو
فولاد
##انشان
##سف
قطره
##۵۲
مجموعه
ازمون
اسراییل
سارینا
دادخواهی
خوابیدم
بنا
یازده
##ily
نگم
##اندو
میگیرند
تفر
سوگ
گردش
بیل
گرانی
##nd
گله
تفریح
رفیقم
خست
خودشه
خادم
سامان
مایل
پیداش
مادرجنده
##کام
کاشکی
##bab
فرش
##vin
##ge
ایستاد
لایق
##کاره
رسیدگی
##ull
سینم
جنگل
گاییدم
نگید
##ght
هیچکی
آدمو
باباش
مدنی
غلام
بخوانید
ایمیل
##oos
اوست
میدونیم
##گرایی
fatima
##اخر
حواسم
طلوع
خداست
طعم
رفر
نپ
فهمیدن
پیچیده
##ake
سهام
پند
مفهوم
بیارن
ایام
یی
کلیت
##ate
##aji
المللی
##رک
پسرای
فلسطین
##ننن
جوجه
پون
عقاید
##انگی
میخوابم
صفح
##کوک
hosein
شورش
رکورد
فرید
stan
همراهی
طنز
غرور
کودکی
شویم
##uk
عملا
کارتون
لیم
استخدام
##اموس
کپ
##پرشن
nar
ترافیک
اندوه
ya
موش
معنا
سلطنت
##ro
رنگین
جیمین
##پیم
##کتری
ایتالیا
##amm
نمیزنه
عوامل
سرکوبگر
عذرخواهی
##دیر
##att
خستهام
کرمانش
خوبن
نهایتا
میخواهم
آپدیت
اعتبار
اتم
چم
دستشویی
نیت
تکه
زندگیش
خیلیم
happy
پتو
##پرس
##قان
میفرستم
##fe
##اعت
dan
تقا
##hossein
شجریان
##اهه
ki
تبعیض
##ئن
مهاجر
ببریم
انگل
کسیو
توییتی
چاک
استادی
##ولان
##gol
بجنگ
ناشی
ایشالله
دهان
ترانه
کشورها
##دهی
##الع
کمونی
یوس
فاشی
استعم
##حق
ویران
ترن
رقی
جایگز
##yan
صمیم
نمیگی
کارها
نفرو
هرکاری
##کلی
جنبه
حیدر
اتاقم
##یان
فلسفه
اطلاعاتی
##خوار
آیفون
زید
نصیب
استقبال
##ومنین
##۲۶
نامزد
خلاق
پادکست
شیرازی
حیاط
شروین
دیوث
برمیگرده
##یدند
نارنجی
غو
##ورک
حوصلم
سوالی
اکت
عبدالله
برقرار
اخرش
وجودم
مدارس
تصویری
نتوان
##شهری
حواستون
##وییم
پروت
##ریزی
بگردم
کالا
##لمانی
##onn
بصیرت
لاش
ftm
عادل
متولد
گرفتند
لابد
ممه
همیشگی
پاه
زنها
حبس
##فو
برگشته
##نشین
faez
نگار
girl
باق
بالاست
شریک
فرند
##ador
توت
##ٰی
##قلاب
لاریجانی
عیب
میداند
موجب
داریوش
۴۰۰
##شششش
عینک
فراهم
بگایی
##iim
سکسی
##irani
زاد
##۴۵
mey
گذار
ائ
کاک
معتقد
اردو
##نتاین
کرمان
میسوز
نشو
معلمان
عوارض
امیرحسین
فرجه
تشریف
گذاشتی
میزدن
نمیتونیم
##ددد
te
pouri
مجازات
واکسین
نواز
نشی
##پزی
israel
خنک
zh
گشاد
##لک
تخص
عزاداری
##eee
zeyn
طلبان
طاقت
استایل
شمع
تکن
##iman
داف
##فاوتی
مذهب
بگیرین
ماکار
میدونستم
فوتبالی
کاسه
اوایل
چاه
دیس
میتونست
ایا
مستی
پات
ناق
تشویق
##وایی
همونی
امکانات
نکند
##سانس
##afa
درم
ناح
سالهاست
jan
صداوس
##دان
##کهی
but
میدهیم
قطعه
fateme
##روزی
##۸۶
موبایل
مات
دیجیتال
##ahmad
راضیم
انکار
شال
شاهین
##rey
گرفتار
میدانند
ساس
قوت
##mand
مهندسی
بندر
بالایی
لشکر
دهم
نمیتواند
sah
##تونم
ولنتاین
اسمشو
مسو
نیا
hn
##غانی
کما
بیسو
تشنه
ماچ
وطنم
azad
##ایلی
اکی
شرح
مقت
تحول
بیمه
ami
بریت
نند
ناس
حبیب
آشوب
برسد
کفت
##oi
بفهمم
##ock
##uh
خیس
همبستگی
نخبه
عمران
##تاپ
دب
کرو
کیسه
مومن
fari
##ger
##ave
بشناس
mt
نرسیده
##چیز
واا
##گذشت
میترس
میکشد
pa
فقیر
گردد
خوابگاه
نخر
تکیه
مرحوم
##وح
بینالمللی
##ream
ایمپرشن
مواقع
شراب
عظیم
اومدیم
میزاره
دریای
قند
##احت
##تیک
ati
نمیبره
خانواد
رج
اتمی
##بینی
##میلیون
آسیا
رسیدیم
##ghanistan
##راست
##ise
ساعتی
والله
ولسو
marzi
موقت
خرس
##oot
بیاب
میرید
عبار
مسابقه
شاخص
زهر
میافت
##azar
طبیعیه
مخفی
mobin
متشک
mostafataj
##ayne
میخواب
rou
pan
لقمه
خاکی
پاریس
##بن
لیدر
##cott
بیوفته
بگذر
عسل
yek
نگی
بکشی
حقیر
تخصص
انسانهای
تفنگ
##یتو
mostafatajzade
##elf
بدرد
ژینا
والی
##book
کیو
شرافت
۱۱۰
عقده
میزارن
##زای
بنویسید
##ny
شمار
اندی
۳۵
برآ
آواز
بخت
دلا
##election
کارایی
مقامات
حمل
بیس
ادمای
ماجرای
تعهد
##ment
معجزه
##کشن
خوابیدن
##mor
قشنگم
##میر
ex
##تیو
##ادری
##hosein
بشریت
##کیلی
اظهار
رانت
##گره
بیارید
پوی
ریزش
##سیر
مطلق
سخنان
##روری
##hastam
الحمد
##۲۹
یکیش
خوشش
israelpersian
چوخ
دگ
درب
دشمنی
لات
نفرین
خونهی
ساق
##افی
۰۰۰
##رمون
##امونو
##ita
##فعه
پاست
##پیک
مصی
بوق
اینتراکشن
##mam
نزدیکه
میدانم
##شکده
وسایل
عالمه
نزدیکتر
##ذیب
میوم
##لومتر
احساسی
سد
اینور
جسم
پارتنر
##wh
نمیشناسم
دوچ
##رررررررر
برابری
حیوانات
behrooz
خوند
سنج
افتضاح
قربان
pahlav
بختیاری
بازیهای
نصفه
پرنده
مراج
سفیر
معامله
چخ
##هاج
##صم
همینطوری
sim
##سپ
##عیت
۴۵
احی
##شور
پسند
آرو
##اهایی
زندگیمون
جنازه
##oph
##arif
##i۱
نازی
بکشن
آرت
تفرقه
خواستار
پدرش
چنتا
##وریم
زنجیر
هوی
##دیگر
موهامو
محتوای
ایمنی
سلا
محور
زب
##کین
کمان
اسمم
هرچقدر
علیکم
خریدن
جغ
##arr
ser
میرسم
دروغگو
بصورت
شناخته
آها
##جین
داشتنی
خاندان
کامبک
نمیدان
##gl
shad
##افظه
تمدن
اونجوری
میت
##حل
پیکر
ننت
##prison
رزم
رسانهها
میسازیم
دلیلش
کنج
cl
پنیر
مجوز
برود
میرین
مکانی
خانوادگی
بگیرند
استرات
##ئین
فات
بخره
جهل
درصدی
itsm
واقعن
لندن
وقتش
خواستی
فرامو
دردم
##لللل
قشنگترین
##gu
روزایی
بروز
اونه
بلیط
سیاهی
اندازهی
یخچال
انقلاب۱۴۰۱
ردی
pey
ولم
##حس
مراجعه
اتهام
##ونت
دانشمند
برنمی
##ila
طلایی
اوت
##میتی
بوسه
##وای
میپی
##آباد
بهونه
di
##بندی
گرمه
##وشه
##۴۷
##فتیم
فرهاد
دوسال
واردات
شورشی
##tar
مشابه
##الان
##vand
ببرن
پاپ
شهروندان
گنج
ترتی
فراوان
##der
پنجم
##مونم
##ینت
حت
##arl
kham
همی
دروازه
آلوده
مزار
میوت
بعداز
بکار
گمان
sl
دوستانی
میبود
hussain
بازه
بنوی
تدری
همواره
ایرانم
اها
نامرد
انتخاباتی
حکایت
یاران
##abd
شیمی
##صن
میگفتی
دهنم
##sl
دلشون
زاک
مارا
واکسیناسیون
ایرانیا
ستار
افکاری
معده
##asa
۷۵
انشاءالله
تونستم
برسی
گفتو
راهپیم
انصاریان
##هههههه
##estan
گاییده
جدایی
اردبیل
میتونین
فمنی
بفهمن
بفهمی
مازند
کاندیدای
##ayn
کتلت
نمیزنم
ولسوالی
##ندهی
بزاره
stanworld
یکسال
دریایی
نکش
حاضرم
کمکم
نویسی
##کککک
##وانی
##لار
##yeh
عوضش
کونم
میگذرد
قرنط
حالمو
اجاره
حیوون
##وتر
شوه
##alib
فاض
پتر
متهم
گرمی
##کردن
rae
##هایش
استراتژی
چال
همکل
زجر
سیو
##ose
لیبر
شونه
مردک
خونی
##ium
##فاظ
پسرش
تهم
اپی
سیا
آواتار
بیایم
دفاعی
نوکر
##elections
هنری
جذابه
حقوقی
بذاری
just
دمتون
mehrdad
امریکایی
نوجوان
ne
جنایات
دکمه
بشدت
اجرایی
محصولات
ربات
jack
بیگناه
##امبر
قائل
رفقا
##ثری
خوردیم
آف
##rypt
ورزشی
خوی
زمانه
معصوم
دیار
اینی
##اعد
باگ
موضع
لیمیت
##حاک
کمپین
آیند
برنامههای
نگذ
##sc
تخفیف
مدرن
خدارو
hastam
##hd
پهلو
shak
کنک
پیرمرد
معذرت
##asi
exol
خواهشا
حلق
گوهر
اپوزی
##باح
فراری
مشتی
##جنس
بابات
##aaf
شیعیان
یهودی
واری
dani
هماهنگ
مجدد
جست
میخرم
blue
آشنایی
مقصد
farz
##٠٠
راهپیمایی
مرتب
##ope
حین
##oori
##ایین
##رات
تدا
تعصب
##ollah
نوز
آیه
##صاص
نمیگه
ورزشگاه
کنارم
fir
روبرو
mehran
خدافظ
بتونی
sc
اتحادیه
##۰۹
تابلو
رفاه
دادید
آرش
پله
حله
بپرسم
##سبه
fl
اسد
##bb
سالمه
tired
##etw
##rahim
خیل
بپوش
پاینده
بخورن
یزید
کیلومتر
انصافا
نوعی
اژ
تنهای
میدونین
پم
فان
##دست
ساقی
بیخود
##ks
##ite
##گرمی
مبارز
ایذه
مرخص
چیزهایی
صدها
شکی
پایدار
جاهای
دلق
##۶۶۶
##وریت
qu
نادیده
اموز
کوک
مدرس
گسترش
##ird
##atan
یحیی
##گرامی
راحتتر
##pop
خالیه
##aram
فدات
ایموجی
چمد
##پن
ورد
الد
##برداری
تجهی
کمیسیون
رفاقت
tom
کرمانشاه
##ایا
##abbas
alef
بیاری
استدل
فهمیده
احسنت
هرات
زاکانی
جلوه
تشن
جک
درآو
خداحافظی
اموال
پدیده
آوار
فرستادم
تیراندازی
کاف
توبه
مردمو
صفت
nim
##رزه
اصلح
کمیت
فیلمی
مساله
کولر
##eon
العاده
پال
پدری
zeynab
mer
شین
دلبر
متحده
عشقم
تریب
صداوسیما
sn
ژن
ماده
##گى
سکه
##جمهور
##درضا
کارشون
خواهید
عرصه
##طلبان
ندین
خوشگلی
##شما
غیبت
bbc
سختترین
بنیاد
بانی
##رای
میخوریم
الق
سعادت
elah
##com
سیصد
دیالو
##مهر
مراق
تیتر
عقیده
بغلش
هندی
##aleki
##call
##اتور
pl
تعطیلات
اطمین
##ئد
بشود
یونگی
نکردیم
فرانس
تقلب
##موقع
negin
آمریک
آهن
لحظات
احمقانه
مجموع
lili
##بیا
##ens
تکذیب
حملات
مشروطه
##اظره
ادیت
مصط
ساحل
خواند
امارات
قدس
مبتلا
##فره
میشنوم
متم
ژاپن
چطوره
##ayesh
##اسلام
کاج
جوریه
انشاالله
واق
تخصصی
نمیمونه
کمترین
شبها
##کرم
##جهای
حامله
احوال
متعلق
سوت
چاقو
میفهمه
قومی
اى
چان
یورو
اورد
بدونه
نزده
فروشگاه
all
##ماع
نمیگن
مناظره
ناگه
تنم
love
سلمان
میدانی
بودنم
روزت
##mehr
##تیه
شوی
خودتم
بکشیم
تعدادی
##وبه
##۴۲
da
هال
پنالتی
nazanin
افرا
خرمشهر
shin
##آگاه
میکشیم
محتوا
پهپ
بیکاری
زیرش
ارمی
میکشی
میگویم
میخوندم
جاب
اینطوریه
نکبت
واکس
آثار
جات
##فاع
سطل
میمیر
پاشم
hom
ماندن
نصیحت
میرق
دانی
تقویت
منظورش
meli
baran
##ton
بیدارم
چشام
صنعتی
کیست
بگویم
##گرو
وضعی
##ji
id
##اسب
خیزش
##ولین
خری
فرجهم
پذیرش
##ousavi
##atr
حرفها
##جل
##wit
##ehun
نگین
zoh
غف
عراقی
sr
اری
رام
##لهی
بازدید
اسکی
##اتب
توجهی
##ideh
ببری
نگاهی
اختصاص
زنه
##۱۰۰
تقدیر
نگذار
گایید
##ader
باهاتون
کرونای
نمیز
##yung
دستگیری
##ele
ترتیب
مولوی
##eez
فرستادن
معاش
دخترش
شرکتهای
بدهد
سس
محد
co
قرنطینه
خوراکی
خونواده
##هایت
ضایع
ریال
مجبورم
lil
کب
اوکیه
شهرها
خیابانی
بدهند
کراشم
ram
میشویم
معل
کین
فجر
##دیس
ریختم
سناری
هوشمند
خودتی
تباه
دانشکده
برسیم
##pur
اینده
##ath
نگیرید
سج
هردو
اجبار
جزئیات
چیزها
shir
قالب
رویا
دیدگاه
قایم
##ore
##بدالله
میرفتیم
hey
سگی
پررو
الکل
شیپ
##رفه
اسی
بذاریم
باتوم
##ناز
پورن
کیلویی
همای
معشو
maed
خودشم
che
بگذارید
##co
عال
رمان
بیگانه
جایگزین
قن
pu
رفتند
##fatem
##yd
اوز
##سیس
جنسیت
فاطمیه
استعمار
sarbaz
سرنگونى
نزدم
نیوی
پیگیر
هشتادی
##ans
لوازم
دوچرخه
مسلمانان
میماند
بذارن
درخشان
لوس
مردا
babak
ایک
سنگینی
saba
ضبط
##bers
شکار
رند
گلستان
زای
آیدی
نبینم
تصادف
##zahra
##nia
نقض
##ft
الهام
cher
تورک
##fip
انیمه
اپوزیسیون
طلبی
tan
قزو
اسماعیلیون
##اهت
##استی
میزنین
استعفا
همینم
فیزیک
ضحاک
ذرهای
خداییش
##mahdi
تمدید
with
باس
حریف
وقی
میگیرید
جلس
شست
مجت
خوابی
اطمینان
ماکارونی
خوراک
دهنش
##rn
##seini
##امن
raefip
یاب
##کیک
میتوانند
بارم
افغانی
مانی
چسن
نیوز
عباسی
میگردم
دشت
لک
mahm
بانوان
##تاب
بشری
بدهید
##raz
اسپاتی
کوچکترین
##سای
هواد
یگان
اوردن
معیار
چشمان
##شهای
منچ
یادتونه
درسی
##poli
##سمس
##خوری
وایس
سربازان
آوری
##assan
هوشی
##چر
حجت
اولم
ددی
حیر
##va
داشتین
پیوند
##alk
##years
پرستی
##arz
##لله
لاو
هاى
##غل
بچهی
متوسط
دره
سختتر
##ااااااا
لگد
۱۰۰۰
میار
بول
##asem
سوء
شفا
##خون
##aban
ashkan
حسودی
سهمیه
هع
وسو
واجب
یلدا
##kas
فرخ
مکر
نمیفهم
##لوب
طرفی
کنده
##nik
گف
کامپی
##یدنت
باط
نامجون
نظارت
ang
ناخود
قشنگتر
پروانه
اسکل
معترضان
##رمی
iranians
۷۸
##eth
کبیر
۹۵
چشمای
بخورید
##fc
رش
صالح
##بخش
##۰۵
ملتی
مهران
میلیونها
شیوه
خانوادههای
تمومه
مراقبت
منجر
##ms
شبتون
##سالی
ادای
یادشون
ایالات
هزارتا
سانت
قیاف
ارومیه
##بهای
غمگینم
خشن
سامانه
ندم
نامش
گاندو
hadi
mina
گوجه
behnam
برداری
استث
بچها
بمیره
انجامش
نمیآ
زان
ارزون
ذخ
وآ
فیزی
سریعتر
ناتو
کوفتی
پناهی
آشپزی
##rat
##صتی
میرا
تاسی
هادی
یکدیگر
##abb
دمش
negar
بخونی
شکرت
مخل
##رفته
دنیاست
say
##afari
بدونی
##۳۵
سپس
غدیر
sajjad
معتبر
ابتدا
نخورید
آلمانی
dash
دائم
ساختمون
فدا
جغرافی
agha
##پای
نقاط
zed
تحمیل
نرید
کابینه
کونت
بلدم
فانت
##خیلی
محبوبم
زندگیتون
ستون
خواندن
##tani
تریبون
mary
##یییییی
##ouz
جوونی
روحش
میگذر
بخصوص
چاره
فردوسی
kos
##oob
##ندهای
گرچه
کیس
تقل
دهها
منع
حتا
ناصر
کز
##act
navid
ورودی
اوات
زائ
شکستن
ghazal
##san
فهمیدی
هفتهای
سواری
##ais
##ashi
تکنولوژی
خطا
##آموز
فه
##och
فاکینگ
khamen
ابری
گفتید
بدانید
میکشند
##برابر
خواستن
##برت
خایم
بتونیم
جاود
سالروز
##we
##ahm
نظرات
ni
ششم
مادربزرگ
##ایب
غربت
اندکی
##خم
۹۲
##goo
فرقه
مطب
آشپز
خدانور
mhd
ذهنی
اهمیتی
hana
king
نشیم
امروزم
##rahimi
راستای
مجتبی
##onews
فرداش
ثم
گیاه
فیلمهای
کانون
##uu
فینال
فدراسیون
ras
تذ
خانمها
سرور
شیک
وحید
دائ
##iid
اضطراب
nr
##وون
##ویچ
##azad
تازگی
قویتر
mis
ویت
نمیتر
مظلو
##شکن
واش
بلده
قلبت
نمیگیر
زدید
##سیل
نیام
لیور
چیشد
##وشیمی
جوراب
##صدا
##inejad
mel
تهمت
ورژن
بساط
برون
##err
زمستان
۰۱
نمیشی
بندازم
عصبانیت
وریا
##اخیز
ایدی
ساد
دفن
مهربونی
تعارف
farhad
##۳۱
تهوع
##shar
##فیق
دانشجویی
soheil
امارت
butter
فس
آمیز
فراتر
کارشناسی
##یع
مند
ابتهاج
عرفان
صیم
توزی
دیپلماسی
میگرفتم
مارکت
##انیهای
پشتیبانی
فریدون
کشورم
##ردان
داور
ned
سپیده
##۳۷
son
ترسناکه
تایی
صورتم
##وریا
تکمیل
##saf
##kam
اندازی
میخواهید
معتاد
naj
aj
اسه
##neg
نحوه
نگرفته
##اشات
یس
##۱۹۸۹
تمایل
بریده
yal
بزارین
iranrevolution۲۰۲۲
کیریه
aq
زندگیه
سرزمینم
مهریه
##استم
goli
جریمه
الل
بسوز
چانی
بلاکم
کافر
مشاوره
شبهای
تخمم
##in۱
گوگولی
##اشق
soh
##زام
naf
پاسدار
nam
##سام
مصداق
جانش
خاکستری
یوخ
##dan
بکهی
##فضل
سجاد
کینه
طرفداران
##ارک
##۰۷
تیمی
مینویس
کے
حرفم
پیشه
نگرفت
پیره
افسوس
یوسف
نادان
گرونی
راهکار
##توانم
##uman
نیش
جاسوس
##برم
سهون
مکن
میپرسه
تیغ
رهبران
سینگل
منتها
گمشو
md
منکر
##کتور
##ازاده
##ترن
##ابق
##الیسم
آلت
بزرگم
تفسیر
وایب
میخواهیم
##aekh
سادگی
على
##o۱
برقی
حریم
شرقی
مصطفی
توله
##ئیه
##ذیری
زنش
##alibaf
واین
مساوی
آتی
نوجو
پرسن
توط
دربارهی
عکسهای
شکو
ساند
هرشب
بلاکش
میخونی
خنگ
##ahram
لزوم
##سسسس
الاغ
##لمه
##عا
تعطیلی
بکوب
مریضی
##vn
شمشیر
ویروسی
تروخدا
##oss
صدقه
تلخی
بازیا
##has
بهداشتی
##مممممممم
##اضع
پوچ
لهجه
محافظ
نات
اصلاحطلب
ماز
بنفش
لاغر
pahlavireza
انفالو
میکرده
بنظرتون
تاجزاده
##ذل
میپرسم
درمانی
هایت
نامح
##iumin
امیری
خصوصا
حالیکه
la
خراسان
حرومزادهها
زنا
دژ
خیلییی
اعتی
گیلان
هفتم
جلاد۶۷
ایدئ
##اغ
تومنی
توم
نمیخوای
حرفش
صدایی
thisis
کبری
##لابی
##عل
جعلی
گلهای
نمیذاره
موهاش
##لیس
بیداد
باهوش
دنیایی
جوی
روبه
وااای
##aekhyun
موت
آلودگی
منظورت
##وسم
تنش
دستوری
اشتباهه
fam
هان
نرگ
##فتون
عاج
بیناموس
۷۹
##shir
##زود
##news
##ائب
mahtab
دندان
روانشناسی
میشینم
توزیع
دبی
هایش
آویز
##تیم
برنگ
گال
عهد
manot
سبب
بریتانیا
فیر
##alil
توییتو
##oice
بانکی
##وعی
##ehi
باورتون
##اوی
##adat
اتک
##ooon
همونطور
محمدرضا
اجماع
نگرفتم
ادی
شاگرد
بهن
عکسا
##mer
نخواب
چیزهای
دهیم
mans
اطرافیان
خواستگاری
tor
الک
باسن
##ستهای
موشکی
وقاحت
همکلاسی
وقیح
ben
نبودیم
##اقض
جراحی
تال
جوره
##ych
##امم
گفتوگو
##وپ
##ودر
##tern
##۰۸
##شتر
نمیفهمه
##ساخت
جذابیت
god
وااا
دموکرات
نترس
فکرشو
بریزه
پراید
خودته
##نوعی
بلک
مرزهای
برادرم
##dm
سیلی
##۳۲
پژوه
چسناله
کوری
hich
sey
عاط
شهاب
حرو
کشاورزی
تنهام
کاریه
##۱۰۱
##۳۱۵
ریل
som
##ino
آمو
مسلمون
جلوش
اغلب
کلاسی
peyman
تشی
سنگر
##ett
تانک
کرونایی
میتوانید
ایند
برسید
جیگر
دستتون
##راب
برلین
دکتری
ارامش
sham
jam
##کنید
عاشقت
گرفتید
khamenei
اقدامات
دلاری
شناسی
صحبتهای
دیم
پیاز
خیابونا
کع
little
##بور
sina
who
tab
##yas
##hm
پلاس
پلاستی
استدلال
تجهیزات
خودمه
میمونم
##den
گروگان
فقد
##ایران
مغزی
ندیدی
احسان
ستمگر
مکالمه
ناکار
استب
day
کلیه
فرانسوی
##ace
##پتو
##هاشون
مردمش
##پاشی
بزاری
اماده
دارایی
عمری
parsa
مافیا
هتل
parisa
ساعتها
بپیوند
##to
متری
بیسواد
واژ
##rin
باخ
##آب
علینژاد
نرفت
##adam
گیرم
نخستین
##خخخخ
دال
حالتون
حسودیم
کاد
کنندگان
آقایان
دیالوگ
##استفاده
بزرگه
sj
لن
پارس
##۷۵۲
azari
مماشات
##تومن
ویل
##نظ
##ebi
##اسمی
##خوش
جدیدم
نکنند
big
##alm
شاپ
##ینهی
بشک
##cc
rom
شنا
میشناسید
حداکثری
نیویورک
##fl
ولى
اعضا
قید
imam
##eeee
##tic
اختلاس
کارکن
پتروشیمی
کمکی
خیار
میث
##خورده
خادمی
دستان
تغییرات
بذارین
بپرس
آهنگای
##خواهان
میندازن
ازاین
همسای
مراکز
قطار
##نیک
میخندم
بریزم
##org
hasan
حافظه
اختر
##صله
مرخصی
دادهاند
شورت
همینکه
۱۵۰۰
برچ
##۸۷
غمی
کوش
دنبالش
یقین
خوابیده
ناامیدی
##tc
اپلی
بامزه
##پورت
ماموران
شعارهای
امیرالمومنین
ایح
لنتی
میزدیم
##باران
میافته
##خاص
ghalibaf
مزاحم
اطلاعی
غز
درگذشت
شخصا
شخصه
##olm
مجانی
شایسته
دریاب
سفت
##lll
جشنواره
اذیتم
فیواست
##وست
موثر
روحم
جوابه
##tu
ارتباطات
الرح
کتابی
##bor
mehd
دورم
بتونن
صادرات
##sr
تاجیک
بخریم
##old
##aha
##ift
##ja
##کیو
freeiran
دادین
شماهم
##ووووو
boy
گنگ
تدبیر
##پاپ
shey
پرورد
##یرو
پهن
نمکی
##۱۲۳
##بم
may
زاویه
نخواهیم
توالت
برایش
عهده
##vd
rb
##gg
فالوم
همجنس
##esht
نهادهای
کمیته
محقق
همینطوره
morteza
المپیک
ایز
۹۷
اداری
قح
##ومو
##۷۷۷
۱۹۸
##ذا
استبداد
##سنجی
خونم
فائ
نگهداری
عبارت
##sen
دلقک
ناخن
##uz
evinprison
قار
mrym
میچرخ
سیمای
درش
ساختار
##tan
مصنوعی
نزدیکی
##raf
وفا
وج
منفجر
وری
اینترنتی
مسابقات
دلسوز
فامیلی
بچم
mostafa
حرکتی
حکمت
مدیون
حساسیت
بگذرد
یجور
گندم
محتاج
دسترس
سلول
مهربانی
##صار
پت
خفت
##lin
اونموقع
فلک
##ife
صعود
پرتاب
اقلیت
افشا
ایدئولوژی
انجمن
ریس
روید
وصف
اعظم
مردمان
عیسی
متأ
##قال
##بلی
آمادگی
بزنند
بدجور
میشدن
گیج
##farsi
تئوری
اندرو
##wt
دیدمش
بچهای
##shin
تحریمهای
##السلام
##yr
مرض
نیستین
بهنام
iman
منز
nc
چشمات
میفهمن
نمیذار
gap
##boycott
بتوان
##way
۱۵۰
ap
تاسیس
سربلند
تحریف
nor
جلال
##kn
بازاری
زانو
سوئد
##خوانی
بستری
خالص
ترش
##لش
غیره
معمول
سهی
کارخانه
خندیدم
بندازه
حسادت
مدیری
نرسید
باو
همونم
##بردی
فرح
آدمیز
بها
وقتها
sav
##پرستی
قدری
##بوک
##یرا
##اکتر
شعله
سینا
##abib
iraniansboycott
هاشو
mot
عکاسی
پرز
بارز
روستای
نمیدی
مامانش
##eti
برگه
بارسا
##blu
sehun
sil
موجودات
جارو
##هاى
شوهرش
تغ
##saa
##جال
تاوان
۶۷
میبرند
اعتیاد
##mr
گشنمه
##ple
نوشابه
لوله
##lam
مصر
راى
##رال
کیش
##اساس
میکردید
مهره
##باس
قدرتمند
##گگگگ
##aliban
میفرسته
سیاستمد
نرگس
مصیبت
چنده
لاله
سهر
سومین
محرو
تبریزی
داماد
چندسال
ft
مبلغ
فحاشی
شکوه
نیازم
نفرم
##ثیری
اپلیکیشن
ادمی
مطالب
پلت
##kook
ملاق
sec
اختلال
مقص
##دون
ایستگاه
میریزن
مجیدی
آشکار
نجف
تاس
نخوردم
niloo
dokhtar
##اعبدالله
آرم
سرپرست
لیام
خورش
##۱۳۷۱
مازندران
پاب
kas
sed
nima
صنایع
ابرا
پیشت
##زیت
##میش
انتص
سیاستهای
اینک
برخلاف
گدا
##idi
علیزاده
لیلا
تلا
##خواب
that
البوم
هیات
اجتماع
##اتر
pay
۷۷
آرزوه
تاکنون
##گزار
نمیتونید
xiumin
کاپیت
##راری
کچل
نمایشگاه
تبر
جاهایی
##تتت
##iil
##خشم
بخری
##jun
##akar
بدهی
سوتی
تحقیقات
تعلق
آخرت
هرکدوم
دشو
غیور
##ery
فاح
هیکل
عاشقان
صحت
ebn
زهرم
سایز
خداو
نخورده
فتو
tar
لول
sw
جلد
esm
پیشبینی
چندان
##ins
لیس
لپتاپ
##جاب
میخونن
تهرانی
شدنش
##inam
بریز
کنفر
صبا
دادا
مدال
##eman
رویای
لین
جیره
میخواستن
گمن
iraniansboycottelections
میبریم
##ستگان
mik
خونهای
دورت
روزمره
قفس
لفظ
تجارت
خوانده
ایلان
خای
شاهنشاه
##شدن
سقز
شیری
سالن
ریسک
صبور
hon
##کند
جاها
##tom
خنثی
##ررررر
ریدی
پوشیده
۸۱
برداشتن
##moon
نمیشناس
فکرم
roz
آبروی
haz
قزوین
##انیم
الگو
تجربی
اگرم
##pring
##ign
بشینه
هندز
بهبود
نخواهند
بیح
جلوتر
مهارت
مصل
##eep
فو
سوس
زشتی
##لویه
واتس
ندی
##ریز
بلدی
لیبرال
نزنه
ولا
##وانه
comment
منافقین
برداشتم
##sch
kav
مطهری
کنونی
##پوش
زرت
پیراه
شایعه
##you
آرزوهای
تنگه
جدول
##ازین
مردها
پروتکل
سرده
##۱۹۹۹
بیاریم
روشنفکر
##ohn
هوشنگ
##ca
pes
برایم
آخی
بط
انتح
شهریار
##orr
##گم
دوسشون
##طار
شاء
alin
news
rad
##۳۸
ایرانو
rezah
##اکس
قال
اصغر
پیشین
ورق
##ستو
پرید
فرماند
دق
دفع
قدیما
##banoo
هامو
مبادا
آنچ
شناسنامه
توطئه
گپ
hs
vah
متجاوز
کتابهای
##taba
مستم
بدونن
نخند
استادیوم
خودمونو
##fir
اسمت
جملهی
۳۱
زمینهای
برمیگردم
##inc
ابوال
##عان
##۱۹۸۸
meysam
کای
##مممممم
jafar
روانشناس
توقف
sepehr
کارد
##ean
تعوی
##صال
رخت
کریپتو
##عاد
فداک
##aleh
میفرست
ساندیس
صدات
خودشونه
فرمون
طرفه
dream
جانب
لمس
عزا
##صاد
اینجام
نمیداد
##dal
حرفه
فضایی
##sp
شاخه
##کنار
انتظاری
بفرستین
salv
banoo
قضاییه
raefipur
پیغم
سقط
##aches
یچیزی
##ئر
چهارصد
مارک
جدیده
دیجی
بطور
تمومش
مرتضی
##غالی
##روح
##کشان
yeg
تسخیر
چیزه
بکهیون
too
داعشی
##ضم
خانگی
ریتویت
پرای
غار
بپوشم
میاند
دانا
ol
تضمین
خلاقیت
نخواهم
فلج
بیشعوری
##نگاه
همایون
زندگیشون
بارونی
ایرانیم
per
##din
aid
پف
سریا
بگوید
##alik
سوزی
چانیول
واستون
اپیزود
بازیه
تحری
##jin
سالشه
بالاس
بیهوده
گرده
ندا
کرامت
##eedom
فروغ
نزنم
key
نمیخوان
ramin
تاخیر
pou
##moham
##شهدا
پاسخگو
یکسان
قرمه
afghanistan
نمایی
بزارن
واریز
نظیر
شدگان
مخلو
bad
نباشن
دستمال
##اوری
خیابانهای
##ala
##۳۶
##urn
میخوند
واقعیه
گرسنه
والدین
##evil
لیورپول
##ase
##bts
بردی
مسدود
منتقد
حفاظ
##شرت
جوک
آهای
##۰۶
هماهنگی
برمیگرد
elham
تیز
منحرف
مایی
کامپیوتر
تماشای
your
۰۲
چشماش
همونه
میآورد
یقه
radi
نیاو
crypt
##جاع
اسپاتیفای
##irez
تذکر
میباره
میریزم
بانوی
افتخ
فعل
رسمیت
اسلامى
##imm
##ثل
رونق
توییتم
تخلیه
سویی
برگشتن
ba
بوش
##اهو
بالاترین
##حد
کونش
کنفرانس
##god
یاعلی
کوم
حیا
سهشنبه
اوباش
استک
تکست
نظم
##راق
رونال
بادم
پشتون
کفن
##jahr
بمونی
رونم
سول
##oni
فانتزی
##۵۱
میی
سیاوش
bam
فیلترشکن
##iiin
میخوردم
ارث
میشینه
great
##zm
گفتین
زندگیمو
یاش
داوری
نیلو
##ونش
میگردد
##اهیمی
بقول
بنف
مرتبط
des
نزدن
خیمه
ربع
##heb
اسپویل
واز
آقایی
good
aram
##ahang
بناب
azarijahr
اخیرا
مرو
باریک
پمپ
جوابی
##وات
فیواستار
##arian
سیگن
what
یادگار
##ower
سوره
##گوش
گرا
وبه
تلو
رقیب
ذلت
##lu
تیره
وپ
پایانی
توعه
اصیل
کوچیکه
جبر
حدودا
##گیره
خداوکیلی
##wa
##hn
دانشجوها
نکشید
##hyp
کشتند
آژانس
یارانه
طفل
قمی
##۱d
mn
چشمت
azarijahromi
موضوعی
##نما
کفتار
##جیل
میبخش
##eng
استقلالی
مانتو
بدانند
هفتهی
ملاقات
##idar
##برای
##شوه
اشکالی
درام
کە
ماهواره
ارتباطی
پدرسگ
معادل
خوشبختانه
بهبه
##۱۹۹۰
##xt
ندادی
بزاریم
کارکنان
ندیدیم
هرگونه
زنم
غریبی
##واب
موجودی
لری
نمیام
توانم
سوگند
بزند
اپل
پشتش
sk
##jahan
سرگرم
##oki
نمیکشه
آیین
معتقدم
شکلیه
ذهنت
پیوست
میجنگیم
##۴۱
##nb
کفر
##فلی
میفهمید
دوغ
گارد
معشوق
آستانه
پشه
امپ
تاثیری
عروسک
غیرم
ادام
امد
##ورده
صهیونیستی
ye
##کف
فرنگی
راههای
##تونی
مراتب
dokh
yg
##نیست
همرو
پرسپولیسی
##ختر
پوشیدن
kaf
استرالیا
کیمیا
شگفت
رئیسجمهور
دستیاری
##var
##mohammad
##جات
معنوی
تعمیر
ny
محاس
صداقت
##child
احترامی
شغلی
اسرائیلی
شماری
اسکار
ارزی
میروند
فرج
##ashm
بدتره
سون
قسمتی
##azer
مشکوک
ماین
تحقق
##خشه
baekhyun
خسارت
##onam
نگیره
روشون
بگویید
براساس
میذاری
##ert
استخر
اوردم
کیت
mit
jo
بفرما
##۴۶
##ؤمنین
غن
میبری
##کره
##bd
##۱۱۱
تفاوتی
افش
کنسله
پیری
کووید
قبی
بهتازگی
سکان
بیماران
صرافی
علیها
##چم
خبرهای
گرایی
##arn
پیشش
جاست
میاری
ابه
کرهای
اتیش
پوس
##ede
khanoom
نموده
دردسر
آدمیزاد
esh
عنتر
arman
۱۳۹۹
##aser
هرزه
دستهای
الخ
فرز
کارنامه
peaches
نامهای
نکردند
قهرمانان
##برگ
تراز
معامل
بفرسته
بازهم
بابل
bal
sy
##عون
شاکی
فروشنده
بفهمیم
##hypen
##ندر
توح
##۰۰۰۰
##جویی
عادیه
##pari
قیمه
ebneh
دانشآموز
khat
##عید
میدارم
شایع
کنارت
ابتدایی
جسمی
نشینی
انتخابات۱۴۰۰
members
pedram
مراحل
میرسیم
بوجود
hem
جملات
گونی
##وعه
الزمان
کارام
عوام
##۴۹
##rm
##لیق
enhypen
زیباتر
۱۲۰
خیلى
##بله
##عصر
تناقض
##آبان
بزرگان
فروپاشی
لحن
##کرده
نشستی
ابدی
نفوذی
روا
مأ
##حک
مردمه
پوز
چیشده
ماشالا
##رماه
##oiution
متأسف
چلسی
عجیبیه
نمیاره
ندن
چشمهای
شهرک
یاسین
۳۱۵
میمیره
##great
iranrevoiution
مخلص
بردارید
##ئید
زوج
کردنه
۷۶
آهنگی
بحال
میون
سواله
آسم
هلی
مرزی
همچی
##iti
our
بخونیم
ودر
عظمت
صدق
خاموشی
##سونگ
##mp
کلان
انز
مصلحت
بجا
تپه
نمیدهد
الهه
زیارتی
مخالفان
پروردگار
۴۸
نسیم
فهمیدیم
قهوهای
دیه
بکیرم
##أت
سبزه
out
rouhani
جناح
صورتش
##۹۱۹
مدلی
میلان
##انیت
بمیری
دستمون
har
پرپر
رونمایی
علائم
خیلیییی
پدرت
تخته
بلدن
میرسی
قران
##ecu
۳۳
##sham
lan
قضایی
##rd
##غام
هیج
سارا
کلن
منفعت
استاندار
همدان
نمیدونیم
##rad
گرسنگی
ناخودآگاه
##parsa
بردارم
جزیره
hesamod
ضروری
##وهی
هاشم
ردیف
##ico
نشدی
اشنا
۶۰۰
kab
وصیت
جگر
میدونستید
نیفت
اسطوره
آسان
فوش
دوما
شاملو
sher
ابا
نبر
هواداران
۴۴
سیتی
واسطه
##نون
شاالله
بنابراین
چهارده
رفسن
همدیگر
انها
موم
##udi
تکنی
گرایش
عکاس
همدلی
ساری
متفاوته
##ارمی
اسناد
##رهی
مخم
##oody
نفسم
تلفنی
##ودن
تاز
چجوریه
افسانه
##oman
##کلاس
##ایلم
تعویض
##poor
تدریس
##sha
خونشون
تداوم
اندک
احمدینژاد
همانطور
ذخیره
نکت
##ارند
مریوان
##تاح
۳۲
##uss
مختل
چا
پاسپورت
متاه
جلوم
والیبال
بى
اکسی
mani
بخوابی
اشخاص
con
میتوانیم
برگردیم
بستم
اسید
معرو
علنی
مینویسن
نشونه
##اعده
زدین
معین
درمیاد
mal
فور
انداختم
شتر
بادی
یوم
خیالی
نخوره
ley
معدن
ازینا
##aste
کنگره
pers
صحن
گوساله
##asad
برنامهای
رفراند
اصولا
میپرسن
فائزه
mast
دراین
##ایشگاه
بستر
عمد
ادمایی
ارزشمند
##ئون
پایم
کانونهای
میرسید
منفور
گشنه
همینا
##ask
رفیقام
##olog
##فار
اسباب
سؤ
##sef
##yz
اکیپ
خدی
بایر
##ghi
##ony
حرفایی
##جیب
انگاری
لذا
صیاد
ارزو
مرسییی
قرض
مودب
##هو
سیگنال
##ونین
درواقع
پارچه
قربانیان
##گرفت
میدانید
بوشهر
##لوا
۸۵
معا
عقدهای
##esm
کوکت
پرستار
فرس
ولادت
صادقی
##ظمی
##فروشی
میگفتیم
بدنیا
شاهکار
##عباس
میفرستن
قیمتی
##bakh
##ci
میخورید
موازی
منتهی
shiv
هشتم
عجله
احیای
faezeh
کیپاپ
##sw
پیشی
##پند
بفهمید
صداشون
پستی
اباد
hassan
##قیقه
##۹۹۹
##عامل
یکیتون
مشروب
##رگی
کوتاهی
سرشار
ari
میشدیم
##لوک
سروش
lu
گواه
##araf
spring
##فترین
##۱۹۹۸
فلیت
##elm
hadis
##omen
شلوغه
فراموشی
یوت
میخای
شوروی
موهات
##میشه
نظرسنجی
##abii
نمیفهمن
med
باورش
عبدی
##حمد
they
دعوای
##rz
##حسن
kay
جوابش
الکتر
ناو
nov
تیری
علیهالسلام
##roz
معد
##ابتی
الو
##قرار
##نویس
##اختم
نخوندم
کذ
##وووووووو
شدنی
پویا
ju
شوهرم
جنون
آذری
الر
##med
بنز
نداشتی
##وشاپ
اورده
davood
پولش
همن
عبرت
خونتون
sog
##عام
میایم
برایت
پیشنهادی
حرامزاده
آمریکاییها
دارک
درونم
فخر
##ttps
اصفهانی
##cam
سپید
برش
طوی
فکرش
کسى
aw
ارتفاع
زنیکه
شمایی
نمیری
سطحی
amiir
##fly
دوا
هرمز
ثبات
غیب
کویر
met
can
غزل
جزی
فمینی
اکسوال
poo
یجا
##su
فیلمای
برطرف
هنو
##kb
ژانر
میراث
فیسبوک
کعبه
داییم
kurd
##blink
هت
میخنده
nev
حسش
جعبه
توییترم
دربار
##یدو
معترضین
##ifer
ماهیت
اسامی
سالاد
سلیق
افتتاح
بلای
دریاچه
##esi
soor
خاصیت
##زهرا
نیار
##جاست
پیشرفته
تقویم
چادری
سرانجام
بپرد
علامت
ابعاد
##orm
میگفتند
نایاک
سلامی
بشنوم
گشتم
میشوم
##۳۹
##bt
نوشتی
خره
میشک
##ishi
مجرد
تیشرت
shahin
قاج
بدونیم
خریت
همسرش
نط
صدم
برسان
پرسش
بهاری
روزتون
شیطون
مسواک
حفاظت
##حان
##sun
##qi
لوکیشن
arian
ایستادگی
##atri
عمرا
هق
پیم
##arb
وهم
زوده
ابان
پک
اراک
##ona
##isa
بجاش
بشنوید
پرف
نمیپ
خوشبحال
lady
shayan
ایل
##vv
##حض
احتمالی
دد
iranprotests۲۰۲۲
best
##ورند
##سمه
معیشت
##sky
yaz
مظلومیت
خوابید
دغدغ
##الدین
حوادث
ترین
ژیان
ندیدن
##lov
آدمهایی
خوشا
cor
ماری
دانشگاهی
##ayeh
تبلیغاتی
خودکار
حامیان
مواف
صاب
خاش
##khah
عشاق
آبادانی
##کران
آنهایی
راهش
##oth
نمیخوایم
کاربرد
نمیگیرم
##شری
##بیح
قاشق
نذری
اصالت
##بیین
همهچی
##باخت
paris
##a۱
مشتاق
مربو
نفتی
##zn
بغلت
چنل
آرای
دستای
ذوب
جونگین
سیس
رفراندوم
##ezh
##میان
##سار
mash
معصومه
چرخه
ماب
تنفر
نوه
مجل
هرک
mahi
کبو
استوار
##ea
farid
تضمینی
تردد
کربل
انا
دوسم
همسرم
گان
نیکی
یادداشت
##گیرم
##po
تجرب
نمیخورم
توف
حاجت
اعتقادات
بدیه
فروخت
##don
میذاشت
آمدند
معاشرت
هجوم
مغر
فخ
##abl
fariba
هیون
بوت
فعالان
پارتن
گایز
##mani
##دارم
پدربزرگ
فناوری
انلاین
##فرد
mhmd
کریسمس
نظریه
نمیدونید
باحاله
بیب
پرم
##اتوری
اسکو
نخب
zi
مامانت
##inaz
مینویسه
دراو
مبنی
##raj
عسلویه
برگشتی
حرفاش
تلفات
بااین
شعبه
روستا
ارمن
مافیای
آوی
دروغه
همدردی
##چوب
luc
تاسف
##can
گرونه
فعالیتهای
##آفر
مقط
پرسیدن
وقوع
گاد
افق
بخوایم
جهش
مربوطه
پارسی
ابتدای
دانشگاهها
فلاکت
میگرده
شانه
##خب
میں
##mati
##ضت
anah
##ازل
##بایی
##ura
نوک
##ajafi
میانه
بسازیم
وابستگی
سهراب
پونصد
##سند
دقای
ولیعصر
پارلمان
هایم
امیدم
لطی
الحمدلله
رسیدی
گوشیمو
کارخونه
نمیزنن
نگاهش
نذارید
hesamodin۱
##edd
بترسید
##هان
##yyy
منچستر
##اصره
maz
افراطی
##خواسته
ریا
##کنیم
ایتالی
قلعه
یور
دله
طر
گناهی
نگاش
استاندارد
ترسو
نمیبینه
sjofficial
kimi
پیشرو
پاکش
رونالدو
تورا
##انداز
##obody
جزوه
سلف
چجور
خوندی
##گهی
خوابه
بمن
گردشگری
دلخوشی
کفایت
بامد
##یدنی
##خانی
پیرو
نقص
میرو
علٰی
gl
##زززز
##fuck
جق
طناب
آموزان
اختراع
اسمی
نمیزار
اشتباهات
##dp
نمیکش
علامه
##azestan
##ron
پلتفرم
جمهوریت
گرفتین
گیرد
فیزیکی
دخترایی
ورم
ncts
nctsmt
بپرسید
nctsmtown
##tha
##قول
تروی
gil
##فاصله
امتحانات
گمنام
فدایی
##masih
دیدنش
پاداش
##حح
گوشش
اکتیو
سرمو
اباعبدالله
اضافی
انی
مؤ
کیونگ
تردید
##xs
میخواند
##ahed
۸۳
تنت
rosh
##ینهای
خندیدن
حرومی
مصدق
##nnn
واسشون
چندبار
موردش
fe
##alii
کوکتل
برگردی
شخصیتی
نپر
میفتم
##سور
کجاش
ببینمش
غیرقابل
کبوتر
پهپاد
خشمگین
ابو
اجن
واشنگ
همونو
ندیم
##qh
متعهد
تسلی
##۱۳۹۹
نتونه
dokhtare
##ژیک
super
پیامی
تعبیر
##شکل
۲۰۰۰
پیغمبر
انقلابیون
بدل
##ههههههه
##joon
##توم
اوب
بادکن
آیتالله
چپی
sob
##زایی
چیزو
توییتش
خیالت
دوستمون
پیرهن
ویدیوی
مسخ
ساندویچ
کاروان
##بهمن
نجومی
بارش
کسشعر
majazestan
وو
زندگى
جاسوسی
کاشت
##ولیت
بازنشستگان
##hand
##ezi
ازای
خاست
هما
##uy
##شیا
نکردید
هوم
##eam
چارتا
see
##۱۴۸۵
بندازن
بردیم
تحصیلی
چشات
شهردار
nad
همونقدر
##لد
raha
ارمنستان
استانبول
armin
تجمعات
قبال
زحم
بخوابیم
پروژ
استیضاح
##ode
مینش
میسازه
##لکی
بهرام
##azy
arba
دانه
##داره
دیپلمات
بشینیم
##اهری
بخواهد
بیعت
ژاپنی
چیپس
صدور
##رنگ
راحته
##یدری
##bano
ارزشهای
لانگ
تلگرامی
بیلی
گیتار
استکبار
میچسبه
##غذیه
گذاشتیم
خشت
سراسرى
اهالی
##feri
##گرفته
##ایدی
نداشتند
قادر
arbaeen
مژ
amirhosein
تجاری
##چچ
بودنه
لایه
لیلی
نمیومد
اعتقادی
انیمی
##اخته
نمیان
کهنه
ئه
تصمیمات
سوالات
za
##khod
دردش
javan
کوچیکتر
چارت
ebnehava
##امان
منبر
عصب
##چنین
یکیه
##وشن
##کاران
مشهور
##light
##khi
کنجکا
یوز
فروخته
نتونست
##ure
manotonews
میرحسین
تنوع
میترسن
غوغ
##ator
aref
قرعه
##no
هندزفری
عزای
مطمع
lun
##alb
کسری
مواضع
علاقم
عاشقش
##ww
درخش
ateez
خانوادهها
طع
دلایلی
جذابی
داروی
خلقت
رویداد
##رغ
زنانه
##karimi
خواستید
pink
هیچگاه
خونش
##imin
##astaran
بیز
##pa
تخلف
کجاس
ئە
##۲۱۰
توییتام
arm
خانوما
جسد
dana
۷۰۰
lou
پیراهن
hasti
هیتلر
نشستیم
خانوادم
جوگیر
##alan
نمای
مدیرعامل
نیلوفر
عنایت
واشنگتن
mos
شلوغی
عبادت
##قرض
میگذار
میفرمایند
##گرای
##فففف
بدش
رساند
حاوی
##bari
نفهمی
##taj
ایکاش
سپر
##bo
##enn
الحسن
کشم
پارسا
انصراف
همانند
خروجی
طراح
##انتان
بریزید
نوار
مستق
tur
اپدیت
##کوپ
sur
اذان
خوده
##olil
##ششش
##زمه
res
جزء
ناف
vpn
طویله
##eid
مسیج
کارهایی
ضعیفه
بودنت
شرعی
##قده
##عالی
بافت
جمهورى
میکوب
تبه
فرندز
##z۱
پراکنی
سیگاری
ناگهان
نرفتن
قشنگن
جنگه
shabnam
aseyed
معماری
##عال
پخت
مشهدی
فاید
فلسطینی
##avash
مره
قرارگاه
بخندیم
youn
مجمع
اورژ
##ire
##sep
bet
##خشی
farnaz
thes
آدام
sf
انتحاری
هاو
بدونین
##life
سپری
نمیفهمی
عرزشیها
باج
muhammad
جزیی
رابطهی
افغانستانی
نمیدیم
تفت
sch
##ھیم
منقرض
متأسفانه
قیمتها
سیدال
fil
داغدار
متشکرم
اووو
میبندم
هضم
لقب
هودی
##oost
لیتر
میبینین
خیز
پتی
جهانگیری
##کای
##الد
خالم
قله
کمرم
رفتاری
حیفه
##فروش
اونام
واااای
نیما
ارادت
پلاک
انگلستان
پیچید
برینه
##ency
خواهران
خوشتی
ستیز
اصلن
پیشون
دلیر
mol
زلف
میمیریم
فیروز
انیمیشن
مایک
آپشن
گریم
##۲۰۱۹
سومی
براندازم
الأ
میلادی
درویش
خوابت
نیامد
ناش
تصرف
خسرو
ماندگار
بخشش
حواسش
سرفه
hm
آوردی
##shahr
ناج
مرام
زرنگ
قیمتش
تجدید
mojtaba
ابراھیم
آخرشم
دستاوردهای
روشنه
sha
##ولت
مواج
ایثار
بشینی
##hj
اکانتهای
حالمون
جهرمی
##rab
پلید
سلبریتیها
چاقال
نمیزاره
بهایی
آخری
اواخر
##itch
ven
نزنین
##oodi
kaz
##زاب
##wang
تغیی
کوردستان
جنگیدن
irani
ادر
نخیر
دوام
میپوش
ممنوعیت
bahram
بامداد
رویایی
##نجر
##ahmadi
##الهی
نمایندگی
عارف
میکردین
موقعها
مینا
وش
##au
##andi
vs
قاسمی
تمس
bor
##gn
کوچول
بمونن
haji
##other
سیگ
shim
pros
##لیش
بازرگ
پیوسته
میانگین
اردوغان
ژست
ویدیویی
قضائیه
انب
salvador
کلافه
اتش
پایینتر
##ited
دشوار
کمپانی
تنهاست
سازنده
اتمام
##قاب
il
بسازه
رستم
##iba
##۱۹۹۵
puolil
قاعد
آویزون
مقن
ed
##رسانی
تروریسم
کشورمان
فص
aseyedp
محدوده
تولدش
raj
##avak
همشو
پلنگ
ron
نمیبینی
##۱۱۱۱
جنتی
حالشون
ترابی
انتهای
عزادار
گرگان
میوفتم
sd
##nim
ماییم
ببندم
##orb
نفسی
میلیار
میزدی
طرفداری
مخدر
بعدها
بدیهی
ضمنا
##چری
نوزاد
نزدیکترین
غول
##ory
##xol
توییتها
راهه
چشمی
inf
صفا
آیینه
sajad
نگفتی
##ائو
بخوابه
نمیکشم
درحالیکه
عا
آنرا
تغذیه
##ضعف
زهرمار
بسوزه
نوت
تعامل
جاع
دوستانه
کرب
ہے
##blue
گلوم
اندروید
اقامت
##۶۳۱
ستایش
موضوعات
تکت
الدین
یادگاری
##inow
##حانه
##por
mobi
##هات
##کها
رضای
ورزشکار
شانسی
همسن
جنت
صبحونه
شدنم
ننگین
##ahim
##کوه
بلات
برسن
کردهام
##یته
کلفت
نگهدار
سالش
##shoon
مادی
##سوز
مینی
littl
بروند
دیره
حن
ساو
##ior
##bahar
لاینم
سوئی
فرف
فرماندهی
درنی
درآورد
مهاجم
کلو
##ومده
##yed
##کوت
چیزیو
aligh
گردید
حراست
پودر
صدتا
میشکنه
مسیحی
بنگتن
مناسبی
دهی
##۲۰۰۲
##توانی
##saw
هیتر
برانگی
##کشور
وطنی
عکسش
##بای
کسکشا
میدادی
همکارم
saf
درونی
##قیان
کمونیست
سوزن
##terais
شوک
عاقا
##yh
##ecuterais
سلفی
##omid
##جمهوری
کشورمون
صبحانه
جابجا
منکه
##iin
نوروزی
##رام
alf
اشتی
حامل
##aza
##ecuteraisinow
مجروح
##cu
برچسب
mom
##اپیش
یونی
اسارت
##age
##توس
پیرزن
##bak
الزهرا
##تای
امار
گوشهای
سرزن
prosecuteraisinow
##jav
جنسیتی
##arifi
خبرنگاران
سوسک
##msh
##idan
تابستان
دانم
میلیاردی
بگذریم
باکس
نجس
دبستان
##lim
مگس
##ebaba
وحوش
جسارت
##یں
ضرورت
سرمربی
nish
##لٰی
##eeh
تعالی
فاحشه
##ماند
##arez
عکسو
گون
آژیر
زبانی
اتوبان
مقتدر
##قم
پدید
کسیه
##۲۲۲
شباهت
نفهمید
##ons
mont
##bah
زمزمه
ترکیبی
فرشت
soroush
نگفتن
کلمهی
ناقص
چمن
##ung
براندازان
هیچک
۷۲
##ouli
یادی
##eihan
فاق
مغزت
غزه
##کنن
##asht
نهی
کاوه
قوربا
کافیست
نذاشت
##الهای
استخوان
نمیشیم
مراجع
خونریزی
##چک
help
امینى
rob
مستر
mhdi
نایل
میمیرن
جادو
##ردند
غمت
شامپ
اینجوریم
##الن
۵۵
##پپ
بنویسه
خطی
اونارو
##زدن
##تایی
شمس
##adan
جانباز
بمیریم
یروز
نهضت
##پدر
##ike
jin
گردو
سالار
نهم
تخمیه
لزوما
##hey
بپذیر
ایگنورم
##rrr
##ghts
گیگ
استثنا
کنون
ولو
کوله
##arash
mag
سرمای
درمانده
همدانی
hr
شدنه
تمسخر
##callm
##ghar
نذر
مرتبه
بکند
مقداری
فاتحه
pour
۹۴
پیشاپیش
مسم
حواسمون
انار
##انوی
فاخر
shahab
قبله
uk
شریعتی
ناشناسم
ندهید
سپرده
تپش
حام
##bod
چندش
مینم
آرزوم
arez
وفادار
بشو
بابک
darya
بقای
طارمی
درمون
##oday
گمم
آرتین
دووم
نکات
باورت
خراف
۹۳
صدی
##cat
بپا
تبیین
پاشید
##rar
کارمندان
رن
کارگردان
##ect
اکرم
نتونم
##اطی
کشورش
##اریه
پارم
چته
میاید
بیشم
۳۶
اصولگرا
نسا
آک
هایده
##zl
منشنا
hp
خوششون
##پاول
##nad
##ola
آراء
میرفتن
تغییری
##khor
##فالت
بیند
تروریستهای
همشهری
موهاشو
callme
کانت
ناحیه
سیخ
مدافعان
vi
نامی
بدهکار
محال
##فکری
مسخر
shar
لابی
سورنا
نصر
##انید
۸۰۰
دلو
بیزار
صبحی
یادته
##ەی
قفلی
##کرون
نمیرن
مجرم
living
deh
she
بغداد
##الین
##fs
##تیست
##zar
bir
وسطش
میخواستی
جملهای
ارتشی
##pers
افزار
۱d
رسوا
اسپانیا
گشته
پایینه
بدلیل
میندا
الت
استخراج
ین
دیدنی
رده
##afsh
farsi
فاکتور
ترویج
kia
ویند
فراق
خودشونم
سوژه
##namaki
محافظت
قاجار
##پذیر
##ادره
صادقانه
بشوره
جعفر
rep
موزی
بداند
یگانه
اکشن
گیس
ثروتمند
خیالم
عرزشیا
##hadi
گفتمان
تأثیر
##lo
یادگیری
alii
میدر
ائت
شهیدی
##هران
دکترا
الرضا
نسلی
روحشون
جونگکوک
بلوغ
پسران
خانوادهی
بعضا
نقاب
اشکم
گرفتهاند
##ییییییی
حمام
تباهی
##aie
ناص
قبلیم
##nas
ثواب
کتابخونه
اتری
##aeili
روبی
up
یواشکی
گربهها
##aker
##king
##زیونی
پاشدم
yasaman
هلند
##سکی
بچسب
ملیون
##آمیز
تئاتر
##هاتون
##پزشک
##o۳
مرسیی
افغانها
نزنی
نین
اشغالگر
مستضعف
m۰
org
##۴iran
نسبتا
پتان
تفکرات
##ror
##osa
لوک
##zarif
مجسمه
نخواد
گردی
##انند
##ovid
لحظهی
ریم
##واری
ویرانی
روزهایی
طلبکار
جونمی
داوطلب
##eraati
مسکو
هرز
فلفل
آنچنان
##شق
##بانو
خانمی
ملاک
اسدی
نگرانم
یکى
واسمون
مجد
حوالی
non
گفتگوی
شورا
mard
کمد
هایشان
کشیدی
نامت
##azeraati
هااا
##go
pouriazeraati
بخندم
نمیتونستم
اونهایی
##امع
##صبح
غش
پدران
هزینههای
saa
saeednamaki
غالب
ابراهیمی
بنیان
بروید
عکسشو
فوقالع
کپشن
پیانو
علمدار
زع
دستمو
##tin
##maz
پیوستن
ebi
##saeed
##anton
تقلید
##sof
مرجع
ادمین
##لیان
جفتشون
بسپ
میپرد
هاپ
نیاید
نتیجهی
۳۴
##ورید
براه
وحشیانه
##o۰o
نبات
##غز
خواری
##قانونی
چیش
آسمانی
طبیع
سادات
##pi
now
نگاهت
##۸۸۸
منوتو
بعیده
عطا
فیض
کرا
رسوایی
نباشین
matin
##کنندگان
نقاش
برزی
مریخ
میبند
##بهم
li
معنیش
خلیل
خدمتتون
کینگ
کارگاه
##خوره
تایملا
mohad
##ction
چوپ
بازیکنان
dy
##ودم
##ااام
مدارک
ویژگیهای
استف
سلکا
بیارین
خونگی
کاور
مأم
بهاره
ost
نرین
میدونست
چارهای
قمر
بقا
بروم
اسهال
کمتره
##پد
عکسها
##ods
سکانس
میزاری
اثری
توییتا
مهرشاد
احزاب
بخونن
زنجان
عدالتی
فالوو
سیدالشهدا
رفسنجانی
المال
تیر۱۴۰۰
##lak
پروم
adam
رابطهای
رزومه
موزه
پادگان
نیروگاه
##۱۳۶۷
چرب
لنگی
##akam
فشاری
منش
##win
مجبوری
سئ
نمانده
##azal
بشکنه
بلافاصله
فرخزاد
سوش
nab
وویس
آشپزخونه
##arzi
car
قلبمو
بوکان
آسون
اونجاست
موث
پخته
۶۸
ارزان
##akbar
اخی
بیبیسی
سپهری
کجان
ارام
داستانی
##ضوی
aa
انبار
روشنایی
دوستون
نمیگذ
here
##asemi
dad
چشه
##pan
##arewe
##نظر
##ees
exoone
##ندان
##غانستان
تیمهای
exoonearewe
غبار
اهنگای
##بارم
world
برینم
پرتقال
danial
lanati
عشقه
##aria
خندید
جهانیان
##سگا
##chan
هسته
جوانم
بردند
هرجور
روشهای
۱۳۶۱
##ستونی
گرام
##رمو
##ایف
پرور
##جش
taj
خورشت
لوز
##کردم
heli
ماموریت
شوگر
go
۳۷
توری
ماشا
##shan
##iis
کردنم
میدونستی
نمیگیرن
اسرار
میترسه
##ariman
الناز
مودم
مطالبات
آجر
توفیق
نشدیم
##iyan
مراد
ریه
درامد
تلوزیون
rezam
##ident
میدونستین
گرمای
##omeil
فریم
نبودند
ادمو
لذتی
مشورت
life
بمونیم
pur
##کید
بسازم
shadow
آستین
##muh
دلهای
عام۶۷
استم
میدانیم
اعراب
میخواهی
خایهم
راهنم
پولشو
یکسری
nasrin
نوازش
ماساژ
##isten
##پسر
احمقی
چپاول
سناریو
سلس
rm
حول
نمیتوانند
##ori
موسسه
دانشجوهای
مباد
مؤمن
قورباغه
ومن
فاقد
طرفو
mirza
چونکه
kaveh
##jal
انحراف
نقدی
بخرن
فود
mahshid
کاظم
محاصره
توده
طلبها
تعرض
sanaz
اصلاحطلبان
hoz
ویدیوهای
کاربری
##ata
ترسیدم
تحصیلات
##osr
اکسم
عقاب
دورهای
تبار
الکترونی
ناامن
##ely
##fateme
##eller
صائب
samaneh
دمپایی
وبس
نیمکت
##خاطر
##mahd
##mod
مطلع
جنی
drjahan
##وووووو
۹years
بپرسه
##weet
drjahanpur
بکنند
میسازن
##روان
نماند
##۰۰۷
میشناسی
بسازن
##قدرت
همهاش
خطای
بدهیم
خوشتون
##bam
##ورایی
##alef
فاضلاب
##نگها
لرستان
##رمن
غیرتی
##zzz
##i۳
##ادیم
خندههای
اموزش
احکام
ایندفعه
عاطفی
ازینکه
ژنتی
جرئت
پژوهش
##دیم
کارگری
صبحتون
##edy
اهدا
tehran
تاش
بپیوندید
##۰l
اللهی
##ooh
اکسیژن
ادیان
یوتوب
آمی
خوابش
دوماه
کودتا
شرا
جوین
مجنون
نیکو
بلبل
hast
نمیکنین
alinariman
میمونن
egoo
egooanton
شاهنشاهی
mrs
آمدی
do
alinariman۲۰
مسل
##۴۸۸
##فتد
نظامیان
##ایای
اونقدری
##ssss
خانهی
بندازیم
۵۸
عف
##satan
##usic
##from
پسرایی
پلن
برنامهی
##شتون
pahlavi
تله
پایمال
قمار
پاکستانی
mokh
ابتلا
ساپ
بچرخ
میدادیم
اینجاس
مادرتون
حقش
ساختم
سیبیل
##کوهه
هرچقد
مرصاد
##۱۳۵
آسایش
نامردی
##۲۲۴
jackson
ورشک
cap
##عار
##ras
##arkhan
دپ
میگیرین
##jel
آشتی
tas
سینمایی
کیهان
نهار
سواستفاده
##ano
علمیه
باقری
چشمش
ایکس
نرود
تلفظ
ناپذیر
کندن
نیاورد
معاملات
برداره
سورپر
مجلسی
میپره
طرفدارای
میرسن
لیاق
باخته
##off
bano
mammad
بندازی
ایالت
ایستادن
ti
گردان
##وقع
تلاشی
ثرد
کهکشان
بومی
کریپت
بالغ
اسرا
roya
حداکثر
sas
##۱۲۴
آهان
ناراضی
همهش
شیوع
گس
##بهی
لاکچری
گزارشگر
بازیها
##۰۱۰
##rang
منطقهای
##سره
سیک
فتوشاپ
نتونستن
##ris
aida
مشروع
mhr
ماشالله
رشدی
استخون
##js
##gan
rz
توییترو
صوت
رحیم
پشتیبان
usa
شاک
کاریش
باکو
میرینه
یزدی
دوساعت
رفقای
فالوش
کمرنگ
جوانه
##کنند
مرضیه
کاپیتان
##vz
twit
الدنگ
پرزیدنت
##exico
موافقت
##چن
##ولار
kcam
##estani
kcamexico
##loo
سیدعلی
پرسیده
کیوته
بستی
شیطانی
kal
poli
خرده
تروریستها
##yungs
افتادیم
الش
الحق
وصله
خطرناکه
ولله
بایرن
توکل
##not
سرقت
میومدم
##ارمو
جمال
##genocide
صیغه
نمیذارن
معاصر
فراز
مغرور
##ree
elnaz
نترسید
vahab
##گام
حقارت
خدیجه
فیکه
میرزا
فرصتی
کصشعر
برایشان
##ml
##فال
##استه
پهلوان
##قین
##eey
دستام
قلبش
دلاور
##areh
##ahe
##اییدم
فوبی
ایلام
moo
دستیاری۴۸
اعزام
افشار
fran
atef
سبد
##ound
امروزه
شرت
گشنگی
##ito
##قن
تقاضا
مسلط
خوشه
گرفتاری
##گرایان
بندرعباس
استادم
لعنتیا
##andom
##بس
samira
اوری
امضای
امو
زایمان
نزارید
واقعه
##assi
فیفا
##خوردگی
خاکستر
بگویند
اینام
farah
##ننننن
hla
پروپا
کلاغ
##ونگرا
##black
##زمین
پرویز
فیلترین
مهرماه
##iiiiii
sheykh
##ork
توضیحات
ببیند
##eq
باتو
ابلف
اونیکه
##sk
##reak
ژنر
هنگامی
##خط
میبینند
بریدن
سلطه
بقیش
مرگم
عنی
بیخودی
hla۲۰۲۱
بنش
##زهای
۲۵۰
حکیم
کلمهای
##rokh
mark
حص
سرزنش
##yaa
دورهی
##inaa
##ریفی
##اااااااااااااااا
روال
پوستر
باردار
جلسات
ایتالیایی
چى
کلوز
بیایی
صبوری
how
هوشیار
##لور
اساسا
alinejad
تومانی
freedom
تفری
##born
بندازید
##قام
ist
اینجان
##کیا
راهم
کرف
تحسین
جوابشو
پیامک
کفتر
ملعون
pish
##سرا
برعند
امری
میفروشن
میخره
آواره
doc
وقتى
چشمه
نامجو
روسها
تعطیله
##گراها
##ذیره
##گول
##hamid
آرد
ویو
مطمئنا
##war
##dream
دوکوهه
جنین
حقه
##طط
۶۵
رویاه
سمیه
##یرت
دنده
دنبالم
##ورتی
کارفرم
ملکی
##dari
خانومه
جورایی
اغتشاشات
##ora
بیشک
maedeh
میندازم
##اسلامی
اسلامیه
خوزستانی
وایسا
تریاک
##غری
هانی
##azz
##ثت
##inb
behzad
دارویی
مهدوی
یهود
آهنگهای
حرکات
##جبه
##کارو
عفو
سپاهان
سرگرمی
دلب
بهای
واااا
##emo
استیکر
عنم
باباب
روزگاری
پتانسیل
دردناکه
پریشان
نخبگان
میفرماید
خلبان
نسخ
امریک
##۱۹۸۶
جار
تورن
سوختن
انع
##هاوس
##mdsh
##ollahi
مشروعیت
قائم
ygofficial
شرفت
تونست
تلویزیونی
رویی
##ii۱
اندام
sirmuh
sirmuhmdsh
بسیجیها
##لاغ
ygofficialblink
دیرتر
میگرفتن
bbcpersian
پرایوت
##oker
##ado
##ats
##ance
##رررررر
##mil
برتری
m۲
wel
قدرتی
ببرد
intern
۶۴
##tajik
طوسی
بینظ
ویندوز
نامع
##land
دوستات
yash
اراجی
cact
تکتک
##eshk
پاکت
##ورس
هالی
گمشده
اعلامیه
روباه
املت
نمیآید
po
فط
خودمونه
بخاطرش
chen
بغلی
##liv
##farah
رفتید
##۱۲۸
hoo
##olo
##ute
جوونا
شوت
نتونی
نگرفتن
راد
اقیان
گریز
ترید
باقر
##ys
ایرانیه
علمداران
بقیهی
وجودت
حرومز
واییی
مرتکب
همونا
کارما
##وخ
خایمال
##mh
الز
بودهاند
توقی
محبوبیت
ترجیحا
ps۷۵۲
mz
پرچمی
میخندی
بذر
ناتوان
نوسان
دستشو
تکونی
##alebi
ارسالی
##۱۹۹۱
ودف
ممت
نیمی
اونکه
##ak۷۵
تخمه
##dn
رومی
بطری
پکی
طمع
emad
rest
will
کاندوم
هایمان
نانو
چندروز
بیزارم
##۲۸۹۲
خانوادهاش
mohii
##ثه
همهچیز
##yles
ایها
bent
پاکی
##ika
طلای
مهتاب
thed
hol
شرفی
ناخواسته
شاشیدم
مسلمین
##هایشان
سیست
صنفی
ایرانسل
کې
##fard
مردونه
کونتون
میلرزه
بدت
علف
پارکینگ
امپر
مصادره
ناگ
یکپار
فیلترینگ
##oto
##hamed
مهرعلی
خا
جمعهها
پشما
تجربهی
hell
اطرافیانم
star
مملکتی
فداکاری
##tf
##کنده
##aaaaaa
##ووون
بخونین
روتون
وبا
##ارتمان
میخرن
فرهی
دلبری
تأی
marmar
goo
بخشه
##۱۱۰۱
mohamma
دوتایی
mogh
بتواند
ویزا
شکوفه
نمیکردن
عاخ
bas
آگهی
roy
##بورد
##داع
اشتغال
یکیم
btc
میگوییم
بعله
میافتد
ماتحت
##an۴
پذیرایی
امروزی
neda
##ولند
خویشتن
حوصل
##boo
##agon
موتوری
ot
علاقهای
sen
اونجاش
تبهکار
کاربردی
moein
همچو
مهرداد
##arem
مررر
ریتم
گوزو
alinejadmasih
دقیقهای
قشنگیه
رگبار
بوک
amirh
اواتار
##اسر
میزبان
اتفاقای
تفاهم
##yad
##۶۸۸
##cast
فیلما
برجسته
اینروز
##inger
نمیار
ببینند
goon
pi
##تس
ard
اخوندا
misss
هرکه
کمدی
##سوزی
شهرام
صادراتی
علیر
pezh
##tah
hanieh
تأمین
##سانسور
liam
ربی
مبین
##اعه
همونایی
نشنیده
##صص
دورهمی
حماس
##xn
اکتبر
نمیدهم
عث
##ullah
کصکشا
stoptajik
پولیس
راک
تمی
عمرش
##ande
قحطی
##kpop
##ros
مخالفم
دائمی
livingbook
نژ
گنبد
##دهای
هرسال
مصدوم
الس
frog
##massa
ابوالفضل
##جت
wolf
##عیف
##emeh
nin
##uri
اسپری
jeon
لایف
چاو
شدهی
##خیم
mtv
hall
دلمو
##أن
جونت
peg
وقتیه
شرطی
چیا
اختصاصی
ایفون
shap
ولایی
بادمجون
دانشمندان
آریایی
اسف
آنتی
مدد
mojtab
خریدی
جیش
گلب
کسشری
اورژانس
دسشویی
اتریوم
##bit
میلرز
قاعدتا
درمیاره
sadeghi
آنی
توشه
دموکراتیک
متعال
##مونه
amiral
روشنی
هاس
نرسه
اینان
آمدم
مدن
تازی
عمده
##ayegh
livingbook۲۸۹۲
درگاه
منصور
بیشرفی
استغ
صورتت
میارزه
گذاشتند
خص
مطابق
الهدی
baby
وقفه
خوبیم
آوردند
جعف
##۱۲۰
بنویسی
خروس
جونمیون
الج
هرحال
##گزارم
##oora
alirezam
panah
vahabzadeh
ثانوی
##ahastam
میمونی
اعلان
نمى
نماید
هف
##ردار
فایدهای
##wn
واکسینه
تامام
منا
بدجوری
##حاب
##jelmar
##ودگی
تشییع
maria
کمکهای
لجعی
اراذل
بودا
کناره
نیافت
امک
مورچه
##ینن
##peik
##les
نیازه
شهرت
سهیل
جامعهی
##mot
چهرهی
##پرد
mahs
۸۲
ساختگی
یم
##دلم
کسشره
عظیمی
لواش
##sin
##karim
مردانه
نظرش
ارایش
باده
ghol
شستن
غیرقانونی
واگذار
قاف
وضعشه
میبرید
##یمت
دوستتون
عزل
##ایى
گفتار
مقیم
##۱۳۶
جونگده
میشوی
غذاهای
تراکتور
یکن
shagh
اسمشون
گدایی
بریزن
sabaazar
##عهی
##jam
سرشو
هویج
هیونگ
زام
sabaazarpeik
##زون
ننش
دقیقن
##قققق
amirhossein
شربت
دادستان
bagh
##ouse
عشقت
شطر
##an۱
نگیریم
فروغی
بیایین
##یران
آدمه
رسیدند
##naj
##vari
##اپی
رازی
elaheh
مشکو
منطقیه
##alll
غلطه
##wu
##فتاد
##جری
صدف
مچاله
##کریم
سازمانهای
شریفی
میشناسه
مارم
##oda
##سالگی
میدادند
##خوابی
نارنج
##hope
پروسه
حرفو
بازیکنای
نبی
##گور
پروژههای
بدنه
end
سلیمان
یتیم
ایندی
##افه
##چون
##زارو
۳۸
##سینگ
ارتقا
روبیکا
کردهایم
میذارید
##کبوت
ayy
مشتر
امیرالمؤمنین
حوصلهی
##just
##arch
میبیند
قسط
کهن
اپوز
ئاز
##bn
amanj
##گیز
ساعات
خانومی
ga
فرماندهان
۱۸۰
کاراکتر
دوه
فرمول
ادرس
angry
stay
هنرمندان
مختص
عادلانه
##rid
##اسین
نمیخواست
میخان
فمنیست
انصاری
خواجه
میخواستیم
نفی
سالانه
##shia
##pak
اگرچه
بمیرید
اسفن
روحانیت
##maryam
برقص
برقراری
منتظریم
روستایی
ایرج
اونیه
بزور
حاکمان
##زاق
مهرعلیزاده
##گردی
میسازد
حسم
##حث
تنبیه
مدیا
##قلی
نرسیدن
##sari
سلطانی
لباسای
بپرسی
کمتری
چپول
برایتان
پیس
##باختگان
پیرامون
##ada
##esident
هیدن
##oome
همینجور
cat
مخابر
##aaaar
نینی
##eme
abolfazlroz
##ank
##لز
کسانیکه
تط
نگذارید
##۱۳۶۰
abolfazlrozeli
داغونه
بدنش
امپرا
بابابزرگ
پرشور
آقازاده
onjelmar
##iiiiiya
میچرخه
onjelmariiiiiya
دیجیک
رسد
مستقر
سمن
سردم
٢٠
vo
##۱۱۲
آرزوست
نیارید
نیه
##عظم
میبوسم
##alili
تولدتون
علیرغم
دانشگاههای
سرهنگ
sima
hozak۷۵
##ازهی
امل
erf
##pay
طلبه
مچکرم
درت
ائمه
##andwith
اژهای
تلاشهای
##وین
تعادل
عواق
تأیید
##لتو
##شایی
##eini
هارد
##ړی
قبلنا
سگهای
اوی
پوزی
سازمانی
هاتونو
##over
کلابهاوس
hav
یاغی
بمونید
جامعهای
##imani
بحق
##athe
۷۳
مجه
mes
عمام
پذیرفته
گلوی
شبای
گویند
فاشیست
دستکم
بلاگر
نقشی
آرایشگاه
شناختی
تبعید
aban
tin
گاییدن
واکسنهای
مباح
hor
تشدید
قامت
کوره
##illi
ببرند
دیجیکالا
##abbasi
##گوری
شعری
وبی
سپاسگزارم
معاد
akh
ببرین
##noosh
خیام
amirali
##nev
bitaraf
##ابش
طاق
اندیش
##eph
##ازشه
##free
گزارشی
adel
وقایع
##بلاغه
رمضون
احیا
##۱۹۹۷
##eta
نرسیدم
نزنیم
##شیری
##تمام
بران
شادمهر
مشم
باشع
بینهایت
شوخیه
##ومتری
انحصار
دمی
سنجش
سلسله
بلوار
درکش
jzarif
toh
سیرک
تلخه
غلبه
mk
ائتلاف
مهار
اقبال
green
##روع
##shere
حمایتی
ارگ
وعلی
زیادن
شتم
##ds
##aya
حرفیه
##withe
بازسازی
stoptajikgenocide
اتوم
بساز
nan
رفتین
خونخوار
زعفر
##brk
kosar
کصد
##zam
هراس
azadi
ببینمت
arbaeen۲۰۲۱
##rights
حرفام
مجددا
سرمایهگذاری
اوس
ترنس
##اشا
##kin
ateezofficial
حیث
کدومشون
میفهمیم
کامیون
واع
زندهام
وسعت
sev
مطلوب
mansour
دورش
mahyar
همدیگرو
روزنامهنگ
غفوری
##شیفته
باطن
##بیری
##سسس
##وشت
رسالت
وجودش
رایت
رویکرد
رقصیدن
بخشید
خواستگار
رضوی
بخاری
##olk
سلیطه
قبیله
دوستاش
وایمی
شلاق
منتخب
رفتارهای
جاد
##بعد
معنویت
قرا
گلدون
رهبرم
nrg
hy
انداختی
تیزر
خانههای
jen
##لها
ناخون
دزدان
##bad
hat
##sagh
احساساتی
نسلکشی
خلیفه
دوستشون
احض
##cle
##۱۹۹۶
بهرحال
همگان
بگوییم
bitarafan۴
##tv
maman
##عععع
رندوم
mali
val
rahimi
بیک
یکاری
پیغام
کشاورزان
##ذب
خالق
هلم
sorena
##obal
لیسانس
بخار
واقن
سجده
دلداری
صداشو
shok
هرمزگان
##agha
بریزیم
آخرم
درآم
##تمل
ناکارآمد
خیلیی
دبه
معرض
قبوله
رستاخیز
دهنتون
بکنین
نخورد
دنیارو
ستیزی
##shm
دلگرمی
##چند
فلسفی
majn
یکجا
اقیانوس
چتر
نیستا
امتحانا
گوگوش
##میلیارد
##الیست
ریلی
شدهام
##عهای
##snews
فوتی
##ehyung
عرش
عمدی
doki
پلشت
بسیجیا
تیپی
لطفی
۶۳
سولو
##irazi
##احی
انگشتر
فالوئر
عکسه
ایرادی
mobina
##الح
دورو
کریپتولند
##چشم
pani
میذاشتم
خورشیدی
##oonam
پولم
جمشید
متشکریم
##a۷
میخوابه
##dia
پشتوانه
##ذیرد
فطر
ey
معاف
سینمای
reyhane
jyp
##زمینی
کلیک
##ایست
bahman
آخوندهای
مزخرفت
عصبیم
التح
بمیرن
##roo
ونزو
##چیزی
حالشو
میخورند
##zab
اعماق
ذلیل
##amad
فهر
دئ
نذاشتن
komeil
محرومیت
پیروی
emw
آرسن
بسازید
باهامون
##۶۹۴
##eem
هاتو
##ستال
مددی
گلگه
col
جونی
عقلی
##۷۳۱
نجیب
برخوردار
طیف
روبروی
ترف
خونت
##رود
خروش
فیت
بیاموز
##oudi
نشانی
آفتابی
نخورم
قارچ
منن
بجنگیم
راسته
seyyed
حقایق
##dier
سامسونگ
نتیجهای
##آف
ig
رفیقای
##۱۲۳۴
##azizi
قابلمه
پرانی
##prof
انتصابات
ac
جانان
یاحسین
تها
مودی
سریالی
پلاستیکی
اهریم
الناس
فوقالعاده
دادگ
تراپیست
اوباما
پنجه
##ظهر
انتخابی
همانا
شماه
##باید
##ards
پاور
مقنعه
ناحق
vak
سفار
hadim
۱۹۹۸
##ghani
محتر
##منت
واه
khanom
##illa
خرما
##اجی
لامص
فیلی
تعلیق
آهسته
pap
خرابکاری
##url
گواهین
احیانا
##egar
گاها
حمیدر
ژانویه
پیشگیری
##ude
مزر
میشدی
گشادی
نعم
agency
##ive
##برز
عزم
صرفه
خوشتیپ
کوچکی
دخترها
ورزشک
چندوقت
کارزار
برعنداز
ننداز
کشیدند
طبیعتا
شبم
همکاران
کرفس
درجا
اقدامی
گوشهی
##withexo
شکاف
زبونم
##۰۲۱
مجله
نگاهم
##انیایی
جعل
mid
##ooj
##جویان
منحوس
##وسه
rn
سپت
وعلٰی
شبت
میخندن
دولتهای
ننو
lord
بایستی
کنش
جاهل
وبسایت
تود
چخبره
بکشین
عاد
زیرنویس
عنکبوت
شصتی
مداوم
siavash
آله
##امیان
نمیذارم
نگهش
آفری
نگاییدم
کسخلی
درهم
حیاتی
##amo
قاچاقچی
va
۸۴
آرمانهای
هندونه
تایملاینم
استراتژیک
هاف
##ابان
ثمر
ناموسی
درده
پوسیده
سیه
وبر
تضعیف
مسیری
##oozi
##aad
ther
شدهای
##شنو
صندوقهای
دستمزد
##shak
##حمید
وایساده
میثم
##انقلاب
تعلیم
میاین
ئازادی
رویه
بدنبال
##eye
قایق
گوری
خلوته
##esu
بازیای
دانست
برمیاد
غربیها
nn
جاعش
##خال
##چان
نگیرم
##bin
##bay
lanatiebaba
##مایی
مسال
مسلحانه
bh
##عن
نمین
زمانیکه
مینه
##ولای
معدود
کبود
کشیدیم
##رائیل
میگاد
##دهنده
##anm
##جوش
بدنی
دفت
##arib
۷۴
خوشبختم
گئ
طباط
ml
بربری
چمدون
##vaz
ظاهری
mohades
شنیدیم
تامل
قیچی
بردگی
خبی
##وود
##xk
خوشمز
raf
##دختر
ایدهای
وانت
##یدهای
۲۰۱۸
jacksonwang
زیستن
##طو
رسان
بمباران
قورت
زیرساخت
چخبر
چشاش
##ییم
بشار
استریت
##ttt
##ددددد
##ernest
میروم
back
خفنی
احمقها
امامزاده
##zy
##لن
عای
تشک
##یدان
هلال
##eddy
بهروز
ترکمن
غزاله
مشق
cactus
gis
آسوده
چشمها
عنقلاب
امیرم
حالتی
باطله
fol
کوکی
##خا
گؤ
بلندتر
بپاخیز
رامین
zidan
کردهای
zizi
##imo
from
برگام
کلاسیک
##عودی
zidan۱۳۷۱
ارضا
حداد
نودی
salam
الملل
##آمدی
پونزده
گات
بابایی
سنگینه
reihan
##mind
دربیاد
خدافظی
منزوی
##اکه
خداوندا
میرینم
میشناسن
##خالی
mrm
fucking
مظهر
فخری
پایینی
هاااا
##sav
گوشیت
مطبوع
داند
خوشگلم
برز
کیوتی
پاکسازی
ادامهی
عضویت
نبینه
##صاح
ملو
لرزه
میشوید
##انیان
موندیم
میاو
gor
سرای
اثرات
مشخصات
nah
##کینگ
##دری
##برا
پدسگ
##ئلا
##ama
کائن
بعضیاتون
##حیح
##سنسن
وفاداری
دونفر
نشنیدم
##۷۷۰
##zibak
##کونی
پسته
درشت
بوسیدن
۰۳
دردت
sadeghzibak
##لری
zohre
رابه
قدمی
تسلط
بازنشسته
سیاره
میشنوی
بنر
ممنوعه
باریکلا
thegreat
فلی
نتم
لحظاتی
وگ
کصم
سختیه
شقای
بکشد
##bazi
##سیز
نمیدید
دیگس
exokpop
طو
شهامت
ferferi
مبنای
حکمرانی
##نشینی
##انیها
mp
سؤال
بانکها
behroozhos
قری
##riend
مضمون
نمیتونست
abb
قیاس
rose
حدودی
نمیداند
شنیدی
بلندی
سپهر
حیدری
ke
نفهمیدن
عیار
لکه
mii
##ade
rev
میاریم
ترینم
پاتر
بازیچه
##نننننننن
پلیز
siam
فیلمها
چارچوب
فضل
زوم
##taz
۵۹
نمیدهند
علما
سعد
##aaaaaaaa
خاب
##llll
بخشهای
رفتنی
ahrar
خریداری
naa
جزییات
##hosseini
دهنتو
ترسی
توق
##imah
sadeghzibakalam
##پزشکی
bakh
میرسونه
##anda
دمای
برفی
##امهر
khor
aghaye
درآوردن
چندی
دادگستری
united
ضیا
##ممممممم
حمیدرضا
فرهنگیان
مهسای
کارآمد
کوس
بازنده
بفرستی
میاورد
mahnaz
میسپ
zedeey
المان
##۱۹۸۷
خاوران
توقیف
چې
محکو
##umb
پاشی
nft
صریح
نمیزنی
جمهوی
جنایتکاران
##۲۰۰۱
مرگش
mahdiyar
خرافات
##وشو
##حرف
خنجر
homay
rezahn
deli
ترسم
وعدههای
سگم
rezahn۵۶
میگردن
توکن
##anaa
گار
مصوبه
##وندیم
افطار
میبینمش
خت
بیوتی
نمیشوند
ارواح
معر
فرفری
کمکش
امامت
ولت
چرااا
۳۹
dol
##ذیرم
samantha
mini
دلگیر
hope
##افته
den
##ادش
یاخ
nina
آنگاه
مسالمت
##طلبی
موف
##ents
هیر
احتیاط
یابد
##gin
کونشون
رمزار
داروخانه
دقایقی
samanthairani
شمر
##۱۸۸
لایحه
رعیت
##ler
فکرمی
##شند
هیچکدام
خوشگلا
##ald
pak
تنی
##goli
وادار
##iry
alib
داران
یان
niloofar
بیابان
نگام
الیز
مولای
توشون
میخواسته
payam
##ھم
مثلث
میپیچ
خواستین
##خمی
##epic
dec
##جید
ارزشش
مشکلم
##star
ef
نپرس
اسکن
لبری
##بخت
سمتش
آبان۹۸
مارچ
اشتیاق
##قیب
hazrat
کاغ
نفتکش
فاش
mich
سالاری
پرهیز
لبت
خندم
زاینده
امیدواریم
##reh
جایز
لند
مادربزرگم
خبرها
ریاض
سپتامبر
افلا
##gen
شاهنامه
##اااام
نشوید
##کوس
تحم
جدای
ملاح
قوا
فضولی
مهربونم
شمارش
honey
salman
##بودی
لفت
اعتمادی
##ume
انک
نفرست
ارزشیها
##odi
جنگنده
اینچنین
رقیه
بترس
اظهارات
میافتم
آیندهای
##abdol
##esia
gom
##olak
تحولات
دستگاههای
لایگ
farsnews
##بولانس
پوزیشن
بینامو
دراومد
خودتونه
یت
##hantom
گردنم
##فم
rh
باستان
موشکهای
آفریده
عار
مخالفین
##جاش
قاتلان
rash
هفتصد
اکبات
##لمی
ژنرال
عمم
وظایف
لحظههای
باین
عزیزانی
میارید
txt
دلال
win
حقیق
greatsatan
hamz
منشنها
میکشیدم
نخرید
میفرمایید
##pir
۶۱
هدفی
خواهرز
نمد
آپل
میکرو
یادآور
جوونای
جعفری
##رن
دویدن
تومنه
اصحاب
زیان
##ینین
کودن
سوسی
##حمت
عدل
zah
human
بیابون
گد
قنده
خجسته
پنیک
سے
کوثر
khalil
هلاک
کیمی
روشنفکری
دروغین
سیزدهم
ماتم
مغول
کشتید
reg
حیوانی
فرمایش
میآیند
javid
شعبان
آشی
باحالی
تونستی
جستجو
واکسنی
آیندهی
انرژ
آموخت
پاچ
tt
میدهید
pdr
##red
برادرش
حفظش
مردمم
رمضانی
ییش
if
حسینیه
##abeh
تکان
کالی
ebrahim
ویتامین
نمیدانند
##zaneh
hagh
مثبتی
##نورد
کسم
اتفاقاتی
غفلت
حلیم
نمایشی
##نویسی
خواهرت
##mira
فراگیر
جف
فرمودن
میداره
منشی
فرموده
پرسنل
##ینگی
اقشار
شالله
آشفته
##aler
وضعیتی
danesh
مکرر
گلاب
لاشخور
نتونسته
ازد
afshar
نسلهای
زدنش
تخیلی
زندهای
لجب
واو
زندهایم
بویی
میریخت
واضحه
نمایان
اراجیف
کمین
پولهای
نکردین
معاویه
##lar
الیزابت
cont
میرقص
بترک
##afr
اینجانب
اطرافم
عفت
##aak
there
بیامرز
خوردهای
mind
##xi
##ابا
دردهای
کتابای
پفک
##baloc
##eless
میذاریم
کیروش
##in۲
##emah
برسونه
احضار
تحلیلگر
ff
##imp
##پرو
##قدس
آمریکاست
##any
دوستانم
voice
کائنات
##mohsen
برنامهریزی
اوهوم
هماکنون
yam
جویی
جهنمی
یزدانی
سالته
##orkh
قرون
##سانی
قطب
بگرد
بهع
گالری
##ela
دلسوزی
یونان
کارمون
میشنوید
##ammm
اوف
داخلش
خانوادش
##pou
##ement
١٠
دوگانه
اونوری
##abar
فلو
رویش
fav
##tiv
آوردیم
مونی
بلاکت
نخوری
##ئیل
متوهم
توانست
آپلود
نمیخام
استری
برآورده
فاضل
فورا
نوم
melika
famil
خوبان
##oad
انتها
عمرت
##ونگی
them
متاهل
لان
مدیریتی
ملاها
##aaan
نقطهی
##مدت
خطوط
##eikh
عبدالحمید
mohi
رکابی
بشکه
جاذ
کثافتی
چیپ
نئ
##junior
ونه
mohamad۱
داوود
##انتری
بدنت
واصل
نهفته
بچگیم
میپرسی
##rezaei
مژه
اشغالی
تختم
پاهام
سورپرایز
رفیقی
خارک
متعصب
farshad
کاغذی
گچ
گرگی
##azem
بندگان
اکراین
fariba۴۸۸
نادرست
##نمید
دولتها
آبر
##r۰
iranintlbrk
خفنه
ونزوئلا
کوتاهه
سوهو
عملیاتی
لباسی
رأ
پروموت
کارشناسان
مبارزات
شرکتها
وایت
هلو
##wr
##ghad
نشنال
##https
دیگم
##lady
المه
##شدگان
خوشگلن
نخود
روشنگری
آزمایشگاه
کنایه
##راط
##ns
امداد
##۲۷۹
مرم
##قهای
##غغ
بودنشون
کوچههای
منظم
mool
طبل
۲۰۱۹
سودی
ok
مطمئنی
dead
عزیزدلم
کشاورز
leil
مرادی
روتین
شطرنج
##۶۹۱۴
like
##چههای
tohid
هورمون
لکن
##دامی
ابتکار
toranj
دادنش
##azavi
واکنشی
##ترز
باک
zhr
hashe
president
##afghanistan
عبدالم
آنتن
ناظر
متفاوتی
mimre
آین
##ستیک
ارتجاع
کشش
##udio
##rs
مادرید
پایداری
حرفات
کمرب
haf
فرزندم
الرحمن
gel
مسأ
تات
##۴r
##فراز
مثله
گیل
سینگلی
ادمها
پذیری
درین
نهج
منصف
رپر
گواهینامه
پردی
elahe
mur
مطلقا
##real
iw
##الیه
دائما
نخونده
کانس
بدانیم
pdrmsh
جهالت
##لیا
رایج
مواجهه
حراج
بسر
سرتو
##liw
park
آگاهانه
ماشینم
##fp
کدومتون
باتری
ماهانه
شهرکرد
گندی
پریدم
نازک
سوئیس
##ولک
##elle
نامن
محبو
صحنههای
##ارگ
مالکیت
کمون
طباطبایی
##نگر
سلبریتیهای
##۸z
خیری
بیشرفا
۱۹۹۹
ادارات
مرتضوی
عزیزانم
حضرات
نوی
##ater
##psych
light
جاشون
بلوند
ارمغان
##شکش
hz
تناس
نزنن
##delrey
عاره
اکباتان
برسون
نادانی
سست
کصخلی
##ایتان
بخورین
##دقیقه
##باشی
حاضری
آمریکای
۴تا
میترسید
##۹۱۹۱
##ven
درنمی
turk
ملیت
داروهای
وسوسه
پانزده
زرا
##hid
نبینی
##allah
ایمپرشنم
هارا
تنبل
بشنوه
فهرست
مینوشتم
##اشونم
امپراتوری
شازده
کنکوری
محاسبه
طهران
sabeti
##ازنکا
سنجی
کردها
narc
eng
جاتون
خریدار
بازیکنا
چسبیده
نمیخواستم
دهنشون
ویا
جاکشا
##jiz
مدیره
فست
جایگاهی
##متری
نفهمیدیم
یاتم
طلبا
mousavi
خرابی
آمپول
وکالت
رویت
ابزاری
امشبم
مواردی
##ugh
بهخاطر
پش
karg
گذاشتید
sharifi
هزارم
جغرافیایی
joon
درکت
##ther
ببنده
میپرسید
sole
نمیس
نمیای
مردیم
تکثیر
گوشیش
پوچی
بازرگانی
۵۲
پنبه
آزادگی
هدفش
شهرو
مختلفی
ریچ
سوشال
amirm
میشدند
شغال
prof
##als
جاودانه
وانم
جند
بنویسیم
##۱۴۱۴
##azizade
بف
دخترت
جنایتی
##our۱
وسواس
صو
##مرد
##اکت
چربی
banu
نیازمندی
دیوید
fahim
بلنده
آزادیخواه
شخم
##ewith
لبه
شادم
گویم
##narges
معنایی
دیز
abdol
بهترینها
##ازیر
پامو
##وتا
اشکی
جانشین
تسهی
متمرکز
alighazizade
بولد
پایبند
قطبی
setare
##نایی
tb
خواستههای
مینوشت
##بارک
mehrab
اعلی
##itan
بیتو
جداست
کریس
خخخ
رعد
##ased
##ache
حسنی
##dokht
ارزوی
##ودو
##نانی
زیباییهای
مانور
ناراحته
حتمن
بنیادی
قتلعام
اپلای
##abadi
محضر
آدمارو
kn
##بببب
ترشی
محکومیت
قریب
خودروی
##برو
یر
ep
##uv
افزود
eh
پمپئو
sz
موعود
عههه
##هیچ
عند
ببندید
جرأت
ماهایی
elmira
پستهای
تندرو
طرحی
montazer
##anam
بخوابید
##لندی
##adem
ناسا
عقی
naser
کرایه
ماهها
کدومش
sel
سیستماتیک
هندو
افشاگری
رکس
اوله
نیازهای
منصرف
بیلب
فلذا
مزرعه
##baby
##iae
کاسب
##انع
##بست
کیفی
##etwice
همتونو
نظاره
##۱۹۹۴
دونی
شقایق
##فول
##tn
sepideh
آرومم
بپیچ
بلژیک
سفیده
##کیف
تخی
##abat
ارزیابی
آستر
##angar
کوبیده
چرندی
شهروندی
farzad
دارا
شدیدی
توئه
سازش
بنفشه
پداف
عزیزمون
بکشند
خبرا
مجال
دامنه
مزخرفه
##akarami
هیز
خارجیا
fatf
##alt
سیاستمدار
##دهم
طفلی
شکلاتی
منجی
##ally
قفله
##eghi
##سپاری
مزخرفی
pahlavi۴iran
##imik
پیداست
listen
تنبلی
امکانش
تلافی
viol
##چهای
ناع
##المین
behroozhossa
حبیبی
##bs
بحثی
##delreyy
اجنبی
علاقهم
نمیماند
چنگال
siamak
jypetwice
هرموقع
امانت
nasim
کردهاید
برگردن
میبخشیم
##oongi
بفرستن
##یمم
##eld
تفکیک
گوشیو
پذیرفت
دریابید
سرماخوردگی
مسموم
##عتم
نمیخواهد
رصد
شوآف
bin
معیش
زحمات
تونسته
##name
##هامون
پرستان
##ککک
نفهمه
jon
پیادهروی
دنبالت
کاسبی
بلخ
صمیمیت
رجایی
kor
شجاعی
تهاجم
قمیشی
behroozhossaini
عزیزمان
چابه
گمونم
غمان
برادری
کدومو
##mz
بحرین
dig
##atch
##payne
زادهها
##jo
چندماه
mirz
akbar
فکرشم
یوقت
۰۲۱
##aka
taji
##ذیریم
بهی
باسو
برپا
##egi
اختیاری
فهمیدید
جونشون
معاند
tel
شهره
ترسیده
لیمو
پناهنده
دوستامو
فرزندش
داین
قرب
##بارد
خییی
یکمی
یادمان
ارزهای
##cloud
پریودی
یاتماز
تصاوی
amirhosein۹۱۹۱
توییتت
زنهای
لبم
زاری
شخصیتهای
ارگان
بنشین
رمزارز
طری
اسممو
سرکوبگران
محرمانه
استمرار
##erv
جدیدش
اوش
##گردانی
ششصد
عینی
ic
گلوبالی
داروخونه
نمیشید
چوبی
نمیرفت
rooz
تورنتو
جیه
##stm
قیافش
تکتون
آوره
قره
ref
ظال
superjunior
##کول
##راز
بالکن
##jast
دفه
سهمی
##حات
##mim
وانمود
اومدین
##الث
دادخواه
esmaeili
پسرت
##ref
انگیزشی
##oria
دزدیدن
درکی
بایکوت
هوسوک
اطاعت
##cher
چطوریه
نتیجهاش
میداشت
کرمی
##قاط
وکل
لیت
معیشتی
کاپشن
##دیده
۹۶۹۱۴
خوانی
تقوا
بیون
rele
تصاویری
آرمیتا
دورانی
##ebe
##nz
آسانسور
تدار
مفصل
ژو
##ough
دانشآموزان
##سوی
##وردی
لباسهای
آرزوها
مقرر
##۱۳۱۳
خواهرش
روانم
مصباح
habib
باستانی
افسر
نوجوانان
nouri
##ski
حسینین
##coin
##انهترین
ناامنی
عنه
##آر
##kand
bat
خودرا
parast
##dis
law
ماشینو
pir
dis
چیزارو
saw
دالر
پرن
زبونی
هیچکاری
کلیدی
یام
##۱۳۵۸
سپه
نقطهای
zan
یافتن
##abad
سلم
کلانتری
##ret
هرجایی
حزبال
تشیع
درهای
##۱۹۹۲
shi
حتى
مرسیییی
ky
نوشیدنی
##queen
ترقه
##wan
taran
بهانهای
##kab
bigh
##۵۱۴
هوبی
ترسیدن
time
##oof
اصا
جمعهای
عجیبترین
القاعده
نمیدین
محکمتر
eli۳
##کبیر
بخندی
بندری
معرف
بگذاریم
نفاق
##۸۵۲
کشورای
تونل
داستانا
میرویم
پوشالی
بازش
تعص
##khat
هیچکسی
دمشون
میمیری
امده
میترسی
اسپر
نشدنی
پرداخته
aynaz
متل
mahb
گناهان
الص
بدهکاره
ندادیم
۰۶
جیمز
##ajer
عرازشه
##jr
صددرصد
##nian
##نیوز
قبولی
عالمی
نثار
میبنده
خندان
بیماریهای
پاساژ
شیرم
آواتارت
##adeh
فالوت
غص
تاثیرگذار
شیره
متق
ساختی
همونجوری
آبجی
وکیلی
باقیم
##ttle
چندم
پیکان
##شیو
بحرانی
میگذارد
نمیزارن
##km
##eshki
##hagh
##گرافی
##ema
nill
ترد
حالتو
##ims
کوزه
یاداوری
nav
##ko
مامانبزرگ
هدرم
##mohamad
صحرا
مهری
کمکت
طه
لایت
newprof
سایتهای
تازگیا
میخری
فرآ
شامپو
١٤
حلش
delaram
قضی
##مانده
پاسخگویی
میپوشم
##خاله
##یدید
کیلومتری
سوپرایز
##phin
هاشونو
رشوه
مضحک
##soltani
farzaneh
زامبی
جانباختگان
##db
گمراه
##فیل
artist
بازگرد
alim
team
مجردی
لشگر
نحوی
لاشیا
##und
سخنی
خیلییییی
آرسنال
##اام
محشر
چینیها
##reyhan
اونطوری
جمعش
حشر
خائنین
برزیل
##mehdi
سما
حوز
معدنی
جابه
خطبه
ژورن
##ظرت
مداح
نوح
مهراد
ایستادهایم
الحمدالله
کرسی
سردی
عاشور
##arin
بدشان
خواستیم
کادوی
##وزن
##less
##imont
##tal
shahram
خانمه
خفته
فعالین
kasra
اچ
کلاسهای
##ahri
چاله
##die
نمیارم
مغزش
نمیرسد
##ehrani۱
اینوری
mrn
استناد
dom
نازل
rsh
سادهترین
منظر
کاست
موتر
کیبورد
افتادی
نگذاریم
##nesh
بفروشم
##side
دماوند
مداری
ترمیم
مداحی
##hay
amoo
##۰۰۳
inter
کوردی
نمیرسم
ell
فهمیدین
##آفرین
##شمه
##افش
کلون
رفتنش
رستگار
مهناز
شیمیایی
##akt
یول
##adp
##rezaa
##idari
ییشینگ
آست
هدفمند
چهرههای
شله
than
خانما
پرداز
مفاهیم
صهیونیست
کشک
##bear
##اسیم
بفرستیم
فیلس
##guy
نیان
##onym
پسش
##زدها
داوطلبان
وجب
میشینن
##vm
باکری
##esl
علوی
هافبک
razi
off
##بورگ
دروغی
خاتم
رشنو
haa
عفون
بزرگداشت
بچش
nyiae
##salehi
زیتون
دزدیده
##گوشت
موهاتو
##۶۹۶
رعنا
لە
ثالث
نههه
نهصد
##چیچ
میگف
کتابها
عاشقتم
دیمونا
##گیریم
sky
میومدن
بیاییم
##۷۳۸
##heart
##atrick
ژی
##اء
حاکی
پکیج
هشتصد
dem
##ilepic
banoy
میخورین
##mmd
hadimehrani۱
جوامع
##lil
سردرگ
دورتر
کردنشون
##ofth
التحصی
##لاتان
##نسکی
وحشتناکه
کلک
ویکی
ابلاغ
##ero
##ساب
نذاشته
saray
بکت
##eda
فاتح
بیرحم
ساقط
##یدین
پریدن
##سکری
##ونز
نریم
چقدره
گردهمایی
پیشتر
تنگی
##aaar
بیگان
تجویز
کردنت
##hel
##eral
rav
برقا
##ئته
خودتونم
ذهنیت
نایس
##اجر
##safari
newprofilepic
اللٰ
کیرت
dashali
یچیز
rt
samdelreyy
شفای
چتری
خاکسپاری
##rain
مداد
افتخاری
##خوب
سالگیم
##ump
جورج
بریزی
مترجم
القا
نمیتوانم
لبریز
let
alway
##لتی
آپارتمان
##sefi
میرفتی
##rrrr
جلوت
متعدد
بازداشتی
shr
عامه
##saj
بزرگیه
فروختن
حیرت
تقاضای
vik
pars
روده
بینالملل
کلینی
۶۹
دستتو
بارداری
تایمی
ri
سرگردان
اؤ
moolook
جانگ
سوالم
##dddd
منوچه
جولان
یادتان
tara
حری
##haj
nass
##val
سفرهای
راجبش
سکو
نمیریم
شهوت
##۰۰۱
راهو
lucifer
روزبه
##jm
مطهر
غال
میبندن
taha
عابر
نامحرم
احمقا
##ابعگ
جونش
بینشون
گاوی
برنمیاد
ملتو
##صف
بیجا
تاسوع
##khani
اسیب
بدخ
آتئی
چرو
imamh
فوقش
سنگی
اقلیم
دوستداشت
##rani
نمیشناسه
هاب
گونا
ناگهانی
ساحلی
عکسم
اقایون
اقل
sari
zari
bob
minoo
##خرداد
sheikh
مخبر
اینجورین
wish
خوک
##عو
ببوس
لاپ
دوروز
رسوندن
موردی
نخوابیدم
هارت
زمونه
همینی
عناصر
##۲۰۰۳
fati
میشناسین
##ایتد
چرک
mood
moolook۹۳
##اشند
هله
##ital
##kill
hi
##ااااااااا
##قوه
تولیدی
آلو
خبیث
میکروف
منیم
تیپیکال
نجابت
مرحلهای
برخو
هلا
دوازدهم
##ارستان
نمیزارم
مگو
سوزش
دربند
ذهنش
silver
چشای
مخه
نهان
hick
رذ
بیغیر
نمیمی
بشقاب
اینستاگرامی
خبرای
ندون
خلع
رحمتشون
##ellow
yalda
##jen
پژمان
عاشقم
غربال
عیبی
استانهای
تکامل
nader
میریزد
خیییلی
faz
صاحبش
##hdi
وتو
الرحیم
اکانتش
جفتش
ناپدید
مخابرات
پوستم
پیوی
لیزر
گذشتن
قندهار
درختی
جمهوریاسلامی
##yaz
معکوس
pet
حلی
##پیش
خونس
مقطع
برنمیت
واای
برسند
بپره
مارس
سئو
امتحانش
یز
طبقاتی
لامپ
نشاط
برگز
زنجیره
##انتخ
##abe
بخود
عکسایی
khanoome
بیداره
برسونید
##isan
m۲sol
رات
##ager
jah
بیخوابی
شوش
بلیت
جوز
لبخ
یجوریه
پلاستیک
ازدست
مینویسی
شلوارک
نرد
داروس
استرسی
دامپ
رفیقت
lim
##فیس
عاشقشم
مرحلهی
دلتنگم
وایست
ماشینی
قصهی
ziam
##عکس
ندونه
براندازا
درمیارن
##dt
خونهها
ابدا
رنگش
song
مردای
دفترچه
ریحانه
میفروشه
صدبار
پاستا
div
کسیکه
ساچ
ast
منتظره
##ict
اعداد
لامصبا
##لسون
پخ
منج
دلخواه
##کارت
تسبیح
۶۶
استند
##umanrights
دههی
مزایای
lit
pesar
##اکو
مسایل
abdi
میگشتم
yaser
شبایی
ویلی
زلنسکی
هرچیز
المثل
##imontana
##bz
##ویو
نمیخورد
##teh
پروفسور
عطسه
بادکنک
میپرس
خامه
dn
##مر
چتونه
سرآ
##eday
##ساست
تاجی
آیات
انقدری
۴۶
اخذ
gen
نشوند
جنب
صبحا
سندروم
##بیتی
پوریا
##ople
مایکل
چراااا
میشده
میخوردیم
خانمهای
مکه
##tical
بابتش
##kim
##tw
تنهاییم
گواهی
نگن
سنم
##نى
اضاف
cham
##ics
nat
بازرسی
نمیت
##پیچ
##ence
خدانکنه
##under
مامی
tonn
رشید
elia
##انگذار
##۵۸۵
پوشیدم
شوکه
جرعت
زو
حقت
واحدی
نوحه
گریبان
##لیتی
پاشنه
شمعی
پیامهای
نال
کلت
شاهی
مکم
بتوانند
اهان
دربرابر
شدهایم
راهت
کوچکتر
البلاغه
##ces
روزش
##سبون
shaghayegh
روزمرگی
بشنویم
post
##سود
tonnimontana
پلک
آریامهر
نیچه
درونگرا
##ole
##ههام
ros
بهعنوان
جراح
mma
استاده
##ular
##جیم
##edia
ترحم
ناجی
۴۱
شاهده
بادوم
بیری
برسونم
mers
عاجل
آمبولانس
l۰
داستانهای
بانم
karim
ارزشم
راستشو
کارکرد
دهندگان
رابرت
زرشک
dorsa
شفی
عربده
هشتادیا
ذهنتون
رودخانه
##shine
##پیر
آکادمی
صبحها
##etri
azi
نتانی
تقی
کردنی
##dian
sama
ناتوانی
قلیون
mori
##وارهای
نمیفهمید
دوستا
شرکتی
یمنی
##ante
معطل
##ofcl
میله
میپس
ینفر
ناعادل
##لامون
خودداری
آنهم
##طنتی
موردع
##ردانی
مختار
امیدواری
بالش
باغچه
۹۱
##گرفتن
##آبادی
##vat
##وشتی
درختان
چهارمین
jk
یکپارچه
تجربیات
##ga
پوزش
کاریم
##hat
یکد
پاییزی
معتق
##ako
وزی
بسوی
کالای
نیومدم
jacksonwang۸۵۲
hyp
بص
##modar
##cue
وایییی
فرزانه
تث
استانی
عموما
یازدهم
مفتی
نمایید
jim
تصحیح
چیزى
##رژی
ادمهای
فندک
سیام
عمدا
حصر
ویلا
چیت
زبانم
نمیپر
##alireza
shadi
برهنه
##avakoli
sof
anti
قلی
jhope
##اقعا
نیزه
صاحبان
مییابد
##mahnaz
jal
##فهای
وضوح
sat
کلاهبرداری
مایع
هیجانی
##۲۹۰
مدینه
##طم
فیلمه
جماعتی
##وازی
##alist
خوبین
امیرکبیر
##کسون
آخرال
وصال
خووو
استوریهای
جستجوی
همشونو
کدامین
تونستن
تسن
بخورد
iii
##enas
زیادیه
ذاتا
mahmoud
##اتری
نیروها
میدونستن
عصبان
سندی
##اقوت
##thday
وسیع
آملی
faf
##ضمن
##akk
##شنامه
داستانش
کشتههای
دانایی
پسرها
بلخره
۸۹
##ugees
لوح
مقامهای
چاوشی
shamim
##کوب
shel
ضامن
پشمای
اردوی
تندی
پرستو
amirrez
حواله
زوری
##ese
نمیخورن
قومیت
gu
gool
roj
some
سانتی
لانه
۶۲
ندادند
مزاحمت
##iit
بخاط
نژادپرستی
##ovid۱۹
نوامبر
خوبش
عواقب
##zadi
حسابم
##usa
یوه
عاا
##ahh
بشناسید
پیشکش
بیخبر
توکیو
##فرادی
##الیز
مشکلش
ایمن
##ازون
شهرم
تابل
خوشبین
خمیر
مقدمه
لوبیا
همسایهها
##ux
##۱۳۵۹
گفتهاند
##آل
##anji
ندان
مثلن
کماکان
هاا
##oas
studio
asadi
ربوده
چشمانت
##شدم
جوکر
صفحات
tay
چقدرم
فنگر
save
##بلاک
نمیچ
##fn
ریتو
بیلبورد
##fatemeh
سرازیر
کودتای
وحش
##lt
گرای
مقاوم
کیونگسو
mak
عمان
شناختن
##پشت
ker
کید
وداع
دستکاری
قبولش
آنهاست
##ازان
##anjshir
##گلی
لیک
##andeh
مخلوقات
ترکها
جاودان
میزارید
سبیل
ارغ
khal
##طرفه
shinee
اخوندی
نپوش
خودخواه
##elot
بدشون
دلخوش
##sss
##کاک
تصمیمی
##هایمان
##ussein
مقدسات
برنامهها
ساسی
۱۹۹۷
##کوپتر
پریده
##aff
مجتم
مهاجرین
##aee
adi
نمیتونین
بامیان
##thr
ساواک
##dani
##ھی
میدارد
استکه
چمدان
##ابید
##ههاش
یذره
##یییییییییییییییی
فج
سیری
snow
مهربونه
##کلن
نمیتوانید
کوفه
میمونیم
تکنیک
ریلکس
rem
جیر
نیومدن
حوض
فرماندار
ترکید
رجب
مالیاتی
over
mand
##oosa
مهلت
واد
نحس
ذوال
یعق
آلبانی
چابهار
##pm
ناموص
نمیزد
نوستال
رفق
##چو
دجال
جذابتر
طاهری
ted
نمیفر
att
اهانت
عفونت
##بچه
##jk
fakh
##ونیه
گلها
##صدی
قویترین
##یری
توفان
مادرتو
ناکام
##ummer
منظورتون
یوو
ویزیت
ronak
بیژن
##pport
برگر
##ویان
فیکس
##وشون
خانوادهای
##ئیم
بینم
عبدالب
sabet
##tel
نیاره
ارب
##jjjj
hesh
##dii
hedi
گفتنش
لهستان
مهمانی
سلاخی
پروین
جنگید
کویت
ماشینش
دغدغههای
همیاری
##onymous
##سنگ
##lic
بنیانگذار
مادرشون
##blues
##yungsoo
##awards
##۴۰۰
##q۶
کاراش
جلالی
زادروز
کولبر
دمکراسی
بیهوش
بندهی
تقاص
نطفه
##khanoom
بایس
dam
رزرو
انبوه
قبض
میبردم
ter
سرتاسر
نکشیم
میخریدم
faridmodar
##فشه
مرزها
دیلیت
mahmood
نتواند
##امام
دە
اذیتت
فقرا
مدتهاست
مادرا
ayyaaaar
sobhan
برت
بندازین
محاله
مردانگی
##alf
##ael
وحشتناکی
امپراطوری
سیدی
##issus
zayn
nem
خدااا
هواپیمایی
کلش
مبتل
nili
ماههای
مجبوریم
##مة
بشینید
مسأله
۸۶
خپل
مارت
اسکوچیچ
jay
##fz
بسکت
hosseini
بنویسن
نیامده
غلی
خیریه
تنفس
##arj
zahraa
دخترک
تحصن
تیلور
خودروهای
روزیه
۲تا
فدرال
ریاک
مرگه
ملتهای
منتظرن
##khe
أف
خشکس
##غاله
قفسه
##sadat
##فورد
دربیاره
تاجیکستان
##ezhad
فضول
##janam
فیلسوف
میگردی
میذاشتن
ویدئوی
نشانههای
اوغ
انصار
اصلیش
##ayda
زارت
sos
برداریم
عاجز
متقابل
حلوا
##anta
lam
دکور
نمیدونست
باشکوه
انگور
sharif
##shut
##لاخ
میگذارند
##۹۹۰
حقانی
golrokh
emam
سیلاب
جنگهای
جمی
اینستام
تهشم
کوچیکی
اخلاص
اخونده
##هارو
زدنم
##نگو
افراط
میکس
برهه
ایضا
بهد
ارمنی
ترکش
حرفاشون
faridmodaresi
nastaran
ببندی
##رمانی
##ebrahimi
خلسه
##ردو
##ount
چسبید
msh
کارامو
ann
خلو
میدانستید
پیدات
##اخی
فالوی
lost
محوطه
##lit
درآورده
##ists
تلقی
##۱۱۴
گراز
اولاد
##فع
##ارها
جووون
افشای
##کاپ
ورو
##oone
##خواری
نژادی
بندگی
میشناسیم
##anl
احراز
##وخت
shom
پراکنده
نهههه
نزدیکم
kimia
##مهسا
لیز
##hhh
شیران
##واد
##ونزی
مردهای
تحمیلی
فصلی
نامعلوم
رکیک
##dam
خارجیها
میگرن
سز
بیایند
بازیش
##china
آبت
##۱۲۱
سالیان
دموکراتها
مبتنی
##aaad
فنوار
##phy
تیمش
عیدتون
##agol
کاناد
میروی
دروغگویی
##terror
بگذارند
نمیگذره
استقامت
##بولی
##۸۰۸۰
hichkas
اونروز
ترمز
کلامی
dep
feri
شیرینه
##فین
bambam
نژادپرست
##مندان
saleh
چپم
محترمانه
##۱۳۰
نکتهی
بخواهیم
سگه
زدبازی
hj
سیاستمداران
فاند
شیاد
##das
بینش
##atii
آنه
##press
دییر
##۵۲۸
روشی
shahinn
##alizadeh
##بودن
فایت
بستند
پناهندگی
##سمسم
shakib
نصرالله
##اییها
##فردا
برایمان
سختیها
last
##ete
##hange
باف
ظلمت
پردیس
چراغی
##ania
asayesh
##گذر
##ابیام
میزدند
والسلام
##erl
کاشانی
نخوردن
##mal
اپر
مطالعات
داوش
part
ظلمی
درج
گیره
##۱۳۹
افزوده
کشنده
آفرید
تضاد
بروی
ندای
تپل
میترسیدم
پاهای
بینظیر
الذ
nz
##polis
##abdollahi
pashm
گوت
هیچگونه
تصاد
##عش
توقعی
یسریا
بوسی
##ومیت
رہ
##bang
بیدل
ارزششو
مزخرفات
فرمانداری
##orbani
خراس
##vel
##jim
باخود
دکترای
afsharmahnaz
gig
تأکید
sana
اغراق
طرفم
پوک
mortez
ببوسم
بدخشان
گرنه
افتاب
چاپلو
##تشان
چهارراه
خزان
gray
گدای
هرگاه
##ubborn
۹yearswith
مصون
نائ
حسو
سنه
زندگانی
برویم
لطیف
عزیزترین
##arkhandeh
میتونستی
تماشاگر
##پناه
##eyedeh
##ouzi
##۴۴۴
nikash
اخوان
amo
گروهها
حجابی
ولد
یکماه
hosse
حقیقتش
باختیم
توییتامو
زنت
##ophile
##قانی
کوبیدن
محمدعلی
ایناست
آبجو
زندم
pedarkhandeh
هدفم
##میخو
##forever
##esar
hemmati
##بح
حالاها
ماشاالله
der
##emoon
غوث
##۱۳۶۳۱
fan
musavi
بیامرزه
پاند
عشقش
lar
qods
اطلاعیه
jud
##eshir
برگشتیم
بگذارد
شمسی
##لحظه
همیم
poori
قبیل
اخم
##ashii
##ارب
اسمون
##وبک
نامگذاری
hamzegh
جهی
hamzeghalebi
##گواری
مانت
داکتر
پینتر
لواشک
بنظرت
قورمه
msa
رسوند
دیگست
گذاشتین
اشکان
تیمم
لود
خوردند
همهشون
کشورهایی
فیلمش
برسر
##oken
نایب
برکنار
طرفین
##شره
نخوریم
karbar
مامانمو
۴۷
نشونش
نیستش
بابامو
nane
شواهد
##راض
قلبها
kir
##hal
اخرشم
برنمیگ
mona
بشوند
قدرتهای
##سوری
معاونت
میرینن
آفتابه
arezoo
##۲r
خواص
شخصیه
##ghasemi
پشیمان
قدی
##ekh
کاذب
شونو
کشوره
برخیز
##nos
فراه
قمری
کسشع
وقتم
عمیقتر
لله
##آآ
فکرکنم
اندونزی
##ahrami
##ranger
##matter
شأن
##sf
##asadi
اوردی
تین
بیچار
##۶۰۶
sb
نمیدونین
اختلافات
بزرگش
وحشیگری
##کود
nafas
##uff
زنبور
صاحاب
هشتگهای
وعلیکم
نباشند
stubborn
شپ
##جج
حمد
##met
کوهی
۱۱۸
##rry
دلنشین
وزرا
##ighi
نمیارزه
massi
##آنی
##۵۲۲
همسری
تابع
##انیست
جوانمردی
سرحال
نیازمندیم
ستارگان
متصل
چیم
دیزاین
بنت
##۱۳۸
باختن
معرکه
##ln
اینف
چانگ
امثالهم
مشکلاتی
mehrad
##ikal
مدرسهای
##known
فاس
میندازی
##ayi
##eek
##وزیر
عنصر
منتظری
نمیند
نسرین
##احتی
تحلیلی
hb
ذیل
پیشانی
نمیفرو
##کتو
مسؤ
دکل
azadeh
##voice
##انگیز
کندی
زنجیرهای
منوچهر
زندگیتو
zz
صابون
##uth
indon
john
frid
hamids
فوتبالیست
پررویی
##ایس
نخواهی
kayvan
بازارهای
توحید
night
مستقیما
##sh۱۷
نتونن
##xo۱
##occ
نگیری
راهبردی
عمله
nagh
سوتین
۲۰۶
موعد
موقعیتی
ii
کثیفی
هورنی
beb
##توییت
##neshin
اضطراری
لوزر
نمیرسید
صعودی
ge
خشکسالی
samir
no۲china
##moj
حشری
##pahl
خشتک
استودی
سوغ
موانع
شهرمون
خاطرش
رفتنت
صمیمیم
##ivers
باشرف
ایوان
##انتز
##ajafi۸۰
##ومدم
ber
queen
فسن
دهقان
میرساند
##hann
انفج
منتظرت
بهزاد
بشت
منصوب
##صح
##an۲
رساندن
فردایی
khar
##حمدی
شهبانو
ایرانشهر
##imaleki
اینجای
##edeh
نیفته
سالت
##rosh
mrd
اصابت
امامی
نرن
##ove
دعوام
بولی
ant
سایبریها
mv
##inik
أفغانستان
ملى
##ضایتی
یې
نتانیاهو
ناظم
کمربند
##ندانه
titi
گردنش
میلیاردها
اکسپل
۹۰۰
صبحت
##amoo
فضی
ااا
only
est
mili
west
اذهان
گشتن
سریعا
##غمه
میطلب
مدعیان
لار
##۱۵۱۱
جمل
میسازند
عموی
مدارا
women
گلزار
##kasra
فتیش
##avani
محمدزاده
داشتهاند
نمیزنیم
vir
نذاشتم
missseyedeh
ملتها
رؤ
ناعادلانه
خدابیام
نمیخواهیم
سیمین
indonesia
##aat
بلغ
##غیب
char
بفروشه
کسبه
بداخ
میسازم
##زادی
ابتذ
تولدمه
تدو
کلیشه
##لمو
جوابگو
##amiri
##کوبی
میگذشت
چمه
استاپ
میخرید
فنگرلی
##اندی
بیافته
فیلمو
میآمد
وکلا
##اللهی
نچسب
فاشیسم
بهنود
مسلما
سوسیس
##جوره
بیرونی
صلواتی
هعییی
##so
##azadi
psych
اشکام
##maj
##ology
چوپان
انقلابیها
##بردار
دایرکشن
نمیبینید
##aku
خیبر
واژهی
لاستی
سکولار
نیفتاده
majj
موجوده
##لاقی
بپوشه
انفرادی
لباسش
ثبتنام
سوالای
صفحهی
##lives
چشمامو
براز
انحلال
##مرداد
مخلصیم
مختلط
##ghol
کارتن
سراغم
زوال
آمدهاند
الماس
##سلامی
معمار
حیران
##عین
حقم
پروردگارا
mrz
نادری
پامی
##izen
کلیات
##۱۰۱۲
منشا
تماما
بونگ
شناختم
ahmadi
خداااا
مباحث
خفق
maah
کولی
سازندگی
چیکارش
دنگ
##پاش
نامم
بیاورد
دمن
خردم
##taq
feresht
golrokhbano
محجو
##۲۲۳
میچسب
توکلی
خارکس
خیابونها
boycott
massi۱۳۶۳۱
دردها
عامو
##اوت
میتونستیم
قربانت
##sor
پرش
بنگر
##ashe
ضربان
آزاری
باح
past
##اگ
بیتی
تنظیمات
سرزمینی
حوزههای
خواستند
آزربایجان
کورس
پروفای
soldier
gri
##۵۰۰
خودمونم
سنین
##حضرت
متعجب
##دیگه
مختصر
ضریب
##آه
روهم
فطرت
قاعده
جامه
##۱۳۷
بدرود
سرپا
جهن
گوید
بحار
ساپورت
shishi
##ozbi
##ated
نمیکردی
نمیشدم
نصفش
میسوزد
تواین
لس
توعم
##کون
##ahshahr
lovl
عع
مچکریم
##asham
مامورا
بالشت
raad
ناموسن
نارضایتی
برمیدارم
سردشت
##گیل
کاظمی
طعنه
پیروان
دریچه
##ندو
nazan
سیکس
خانمان
مجتمع
فالوبک
بودو
viking
آزادى
##ژانت
was
قصر
همینن
سریالهای
انه
##ster
لحظهها
##lor
نوچ
خریدیم
esf
قوای
pesare
lot
خاصه
همسایمون
میدیدیم
##able
عود
ویرانه
نابر
شوع
مغزتون
مبارزان
ملحق
##علیه
میفرستی
میخندیم
ارس
##وقتی
##abakh
اغتشاشگر
نمیخونم
بهمان
سراری
پنجمین
تسویه
##تتتتت
موظ
کسان
اشرار
لعن
said
رییسجمهور
رستمی
درضمن
حسابش
شنونده
javanmar
کلهی
آیندگان
arz
##addam
میرسند
دودی
بودنو
kargadan
##پین
##gard
حقو
##asha
##فریم
بغضم
مطلبی
نظرشون
مغزمو
پوستی
علمای
دورههای
دماغم
میخونیم
نوجوانی
کتونی
حمزه
زبانهای
سایهی
علیهم
میترسند
تثبیت
۵۶
۲۵۰۰
ftme
یال
szabdollahi
افول
سیاهه
تلنگر
پایههای
##۱۳۳
پشیمونم
niki
##cd
راند
بلاتکلی
بشکن
بمانند
پوت
۵۱
صحبتی
##etta
موساد
نگیم
jalil
sonof
اولار
عیان
رزمندگان
##bat
محلات
نفهمیده
وغ
علایق
لاهی
##اى
محجوبی
۲۰۱۷
rbxs
همگانی
##۴n
iranrevoiution۲۰۲۲
صداس
تراش
بایست
یکه
bita
۵۴
فلش
شدهها
بسازی
زیباس
میآییم
##ella
حسام
صدامون
تقابل
فشرده
shahinnajafi۸۰
پالایشگاه
بیفتد
گوزی
میموند
تازهای
afghan
alip
ترندینگ
ziz
اسمیت
کارون
قرمزی
جادی
یکسره
لالی
سایپا
mbn
##مدار
طفلک
##emoh
##ویلا
آنج
همرز
نبند
بخواید
##arii
املاک
کصنم
یحتمل
دستاش
خواهرزاده
##oche
way
ارجاع
مصوب
سناتور
shima
کوچهها
ابروی
مابقی
نیابت
##rom
##ەک
میگفتید
دراما
بیانیهای
رشتههای
##سنا
##prisoners
##bud
شهرای
بروج
مجهز
##agenocide
sogand
تعقیب
jp
بمال
##aaam
نے
موجی
موندی
nadia
##asti
نورانی
بهشته
قلابی
##۸۸۶۷
##mard
عقیم
قرمزه
دلمان
تینی
جالبیه
##samadi
روانه
##ترو
rast
گت
نمیرود
narcissus
##۶۲۳
##افات
اطفال
دنباله
تعهدات
گازی
##آمو
دبستانی
##xl
##else
بخشیدن
##wl
آقام
اکانتت
ostad
##key
کسیم
##پاره
##crypt
##انواده
صهیونیستها
sepid
shirin
نمودار
ahrar۹۴
نبرده
کالاهای
mahsaa
میگرفتیم
##ینیو
میتوانی
dokhi
nobody
##aheri
##eshoon
مزدورانش
پیرسینگ
کاز
بازاریان
restart
ordi
استکهلم
ava
freeiran۲۰۲۱
هلیکوپتر
سوشی
نسبی
پررنگ
aliii
##هها
محکمی
دخترونه
اقلا
همدم
دربیارم
شتاب
زائر
imm
افتخارات
##massacr
##use
رویترز
##anak
##دمون
متین
هاید
محجبه
مولوت
میشنویم
دیدند
##۷۲۴
کنندس
پیجش
احتمالش
زری
##وووون
رزمایش
آزادیخواهان
عددی
janam
خزانه
نہ
##sher
butterfly
دیل
الاعظم
سیبی
##ەر
فنج
دیلی
تطه
##شتیم
soltani
ho۳
##ors
sayeh
##اختن
ثانیا
غلامی
نوجوون
بارسل
anonymous
##avaz
سعود
آیدا
##ژدی
اتصال
##obe
غلیظ
##box
تجریش
کثیفه
daniel
##ful
##ضاییم
young
خاتون
##shari
بشنوی
مقر
مصمم
محدودیتهای
گرین
chaw
زنونه
شاغل
برمیداره
تشنگی
##eni
##baba
##itam
بخواهید
آبانماه
تراس
میپوشن
شاهان
##town
##آپ
##خس
یاور
##ilia
براهنی
ازه
masood
رجوع
##اشتند
##ادیا
khosh
nafis
بهترم
پنداری
قدیمیه
نگیرین
##tari
خوابن
جدیه
دانسته
##طاف
مدیرکل
van
bay
جوابم
بیزین
قطعات
##political
mov
خداد
مولتی
مغازهها
##ادین
سلطنتی
دامان
خایمالی
##javan
عیده
دخیل
کلاسای
##df
##ju
mika
نمیبرد
still
کربلای
##riz
منصوری
##گگگ
##ness
رول
##oub
کنت
dary
جاذبه
قسمتش
##oo۱
قزاق
##لامتی
دیواری
##۹۲۱۰
شمایید
تایوان
نظامه
karimi
##raine
کسخلا
نمیخواید
عبدالباقی
خزر
قمه
منشنهای
بازیگری
##une
purple
##azemi
##aresh
##یتا
هرجای
کنندهای
کیرخر
جنایتهای
##گت
الرضاییم
##uf
ger
اولسون
##aghaj
دقه
بکتاش
اتی
##قاره
دهنی
حف
##rlin
طوفانی
إن
خوبیش
##obi
##ترش
##۱۹۸۴
بقیهاش
ka
##پاس
##bei
##مانت
گسترد
چور
نمیدیدم
ماشینهای
##۳۳۳
میبودم
نگذره
##۹۷۳۱
##x۴
نمودند
تفریحی
برکات
حزبی
ناچار
##کاس
##پاد
##گیه
ندیدمش
##lah
مازوت
##imes
قدمت
##اااد
##۷۷۶
every
##nnnn
##lef
لبان
مسج
مریضم
آفریقا
حقمون
کدومه
رحمانی
پیجم
##۱۲۴۲۰
##unny
باکلاس
میترکه
##گش
طوریه
نشویم
elia۱۲۴۲۰
نبودنت
۵۳
سیامک
سگا
تمومی
##shal
دستیابی
عصبانیم
##emad
##سلم
##۱۸۱۸
الکیه
زهی
زمانش
تاکتیک
##politicalprisoners
برنمید
قطعنامه
کویین
##saeid
طرحهای
خپ
طاغ
دخترهای
aliw
گیف
موها
##rand
پیشونی
murtaz
##ouchi
sh۹۲۱۰
مهمتره
ass
##اول
kill
اهم
زهره
ضربات
نیوفت
برمیگردن
##ermez
مادرشو
تطهیر
##javad
eyn
مستدام
حماسی
##ner
tha
##ult
خرگوش
گریست
اکانتها
chawshin
زائران
anahita
میناوند
مشروط
نمیبخشم
ابتذال
sunlady
##hp
نمیگیری
آهو
حملهی
گوناگون
جوم
atena
yasin
sunlady۱۵۱۱
پریش
بشینن
##طال
مامانا
##eer
##طب
باسواد
سگها
##down
##global
آلارم
رغم
بزدل
theycallm
##زمانی
بوو
##sg
فشفشه
moonchild
fc
hand
##esham
##yer
واسهی
فرهیخته
همهجا
نمیبینیم
cha
##wolf
ili
##یلی
هییی
murtazaw
bayat
##raw
وارث
رقمی
##behfarsi
ساچمه
##ساری
متمدن
جفا
پوله
محتوی
##۱۵۸۲
et
دیپلماتیک
##ساق
usabehfarsi
##enc
قویه
طرفت
اجداد
##ائید
گزارشهای
۱۳۵۷
##chk
جیک
سعاد
fatira
گلایه
ریپور
atefeh
jahan
مسکونی
##گاند
زیستی
dog
##باغ
میمیرد
کنسول
##۷۷۹
##oop
##خیز
یقینا
##ئلی
زدهاند
تطبی
ایس
##زیستی
نمیگذار
تزویر
##entist
##عنی
فاطی
##flower
دیستن
صدایش
##olat
مرج
##ennn
سخی
متنی
یوسفی
صنف
اکر
عسکری
##مام
##۷h
حجازی
شستم
بازیو
اهنگی
برهم
##chanyeol
مزیت
##۰۴۰۹
گریههای
murtazawi۳
اکانتمو
السا
روستاهای
بباره
sogol
شیاط
سازماندهی
##negin
کوچیکترین
##دددددددد
هیتابعگ
علاج
شنیدید
عقید
##zed
vqh
##لع
آزادانه
شریعت
folan
مفسد
بفرس
##ender
##rg
مرامی
میخواستند
##نب
بلندگو
چشمتون
صده
زنانی
پیروزیم
romina
##۹۱۱
قضای
##ایک
##xa
انتصاب
هجری
املایی
##say
##mj
sahel
میخوابی
متناسب
shaz
اذیتش
قافله
grey
##گروه
##ipour
##قلب
##سیا
samin
فکرت
##شنام
موسس
کنارشون
نمیگفت
کلینیک
##کشه
آسفالت
صداهای
##odd
##line
مشاغل
حفظشون
##ودا
رفتگان
دانمارک
خندیدیم
یجورایی
beg
دوبله
sq
وااااای
استعف
narg
گرافی
عبدالملکی
دیش
نگهداشت
۳تا
جنرال
old
باغیرت
رژیمی
##فسکی
میزاریم
بفکر
##viv
##etayesh
حنا
##oting
چاقی
تکبیر
برگزیده
##ooli
میتوانست
سیستمی
دیک
##shahi
##سمی
##قح
##gharib
bour
##rk
گنجشک
ns
منفعل
صفات
angel
##urai
villa
behrooz۸۸۶۷
behrooz۸۸۶۷۱۵۸۲
gra
##crypto
فراموشش
کاندیدا
غوغا
s۱
arsal
پشتم
کشورت
ary
مسئلهی
کانسپت
میتوانم
خلافت
##۱۳۷۳
میگردیم
##ااار
نیازمندم
##فقط
زورم
##عبی
##زبان
break
mosl
##angi
##امیک
ساسپند
alik
آرتیست
ازار
prot
هنوزه
##۵۵۳
نروژ
بردارن
چپها
میتونستن
کوکو
کسشریه
##ndr
تهکوک
قهق
درمقابل
پپ
##رسان
وکلای
روانپزشک
امیرمقاره
ببندن
سحری
راوی
۱۲۷
بفهمین
##refugees
آزادسازی
اصلیترین
crist
نرفتی
وخیم
اسکیز
کنع
برمیگردی
موثق
نامزدی
##sel
حروف
freddy
گهر
##ومین
سفینه
twitt
۱۳۷۲
##ااان
ذاتی
سمه
jafarim
بخواین
##پسند
توییتره
تراژدی
##۶۷j
گندش
دستبند
زخمهای
##linson
##۰۱۴
def
got
##gle
الهلال
هیکس
بلین
مبتلایان
نمیگیم
##۲۰۱۸
freddy۶۷j
لغت
عابد
##onel
تابوت
گوینده
##inia
تصورش
استقرار
دخترانه
##مار
میگویید
raisi
##جمله
هیس
معارف
ریتوئیت
##تیها
خبریه
##مدی
##۸۳۱
mahsaamin
parham
##yc
خودخواهی
هایتان
حوثی
مرهم
نوتیفی
خزعب
https
اینکارا
نفرمایید
زدنه
دستها
آسیاب
بکوبم
افشین
کثافتا
##طلبه
know
##۱۹۰
بیقرار
چیزیم
میبینمت
بشورم
shift
ثانیهای
نمیخواهند
نشستهام
##asl
خوردید
دلمه
pabl
تغیر
##yexo۱
چنگی
##rod
have
حشد
##ترا
سرگی
نریدن
بایدم
hickas
ترسید
پورت
وجودی
لوگو
بزرگواران
میشناختم
مناظر
فانی
گرفتنش
مرررسی
چاد
فاصلهی
مکمل
##کبر
lovlyexo۱
شهرستانی
میریزی
تبادل
##eshti
##اندند
معلمی
هوشمندانه
پرسی
خوشگلتر
یازه
مسافران
یارب
##افط
شرک
گردیده
مرفه
##hon
بچهاش
پریروز
vqh۹۸
##aeb
فرایند
بدبختا
درکنار
##۲۰۸
آرشیو
eag
پردازی
اخطار
هفده
فالویینگ
مثکه
مملکتو
##ولم
میمردم
##۴۴۴۴
۲۰۱۳
استیج
میاندازد
تاسیسات
تایمز
num
والد
boycottiran
##negar
##safer
بوکس
چله
محافظه
لالایی
خودمونیم
نمیو
##atab
پاشه
تایل
البرز
کلاش
بهبودی
برخاست
یجایی
پانصد
##یدونم
tasnim
##رگیت
تاسوعا
بدهم
خفقان
show
##iiiiiii
تابست
##iil۱۱۰
mikaiil۱۱۰
زنای
علنا
متوالی
sagh
نداند
مغزهای
ختنه
تواف
شرافتم
voa
قیافت
معاهده
hanar
میپوشه
بشنو
آستان
##ریل
تمسا
گلشیفته
##سالاری
##دیا
نخواهید
رفتارش
آنگ
هایل
##akhani
مادره
اصراری
##girl۹۷۳۱
نشناس
پدافند
حداق
##sd
ail
مستح
ak۸
سوخ
##oup
##للل
سربلندی
چرند
بحر
پروفایلم
منحصر
jafarimhj
نمیگید
دوق
##شیه
منس
shoj
خالد
نمیترسم
ابهام
حنج
ماهوارهای
روى
ہو
##ائی
سینوف
rezamahshahr
غمم
شهریه
##dini
ستود
##abakhshi
اینروزا
inaz
##ossom
گفتا
##ghafari
هفتگی
آمل
اسمتو
برترین
##وریه
##inion
درح
##ورزی
ماهشهر
باتر
نتیجش
امسالم
azar
ze
میشینی
نایت
مسافربری
politic
اسماعیلی
چرخش
دونالد
##avar
غیرنظ
oh
معتم
شرمندگی
مفهومی
میدیدی
مبارکت
فرت
بمانیم
آسترازنکا
##۴۷۴
##شونن
##ررررررر
کنسلی
اشکهای
ابلفضل
میاندی
morad
بچهام
##ovey
##اعی
میگفتین
reyhaneh
##dish
احساساتم
نبینیم
مزخرفترین
##iki
##nejad
##ebl
شفاعت
ببندیم
خداقوت
منشنای
##ایرانی
روایات
نشدند
##maaleki
##ils
جانبه
یعنى
گزینههای
ترفند
همهمون
##هایه
ارج
تونو
الفاظ
doctor
کورش
جفتمون
fm
اومدید
مغاز
##farzaneh
his
hit
مصاف
طنین
خانهها
qaz
ویزای
missfateme
نشدید
شوعاف
آداب
دایه
##خواهد
##اریخ
دبیرستانی
بازنشستگی
ستارهها
نمیخواین
مطمعن
##parast
شگ
فجی
##endi
max
##۲۰۰۵
یهودیان
##xd
نبودید
برداشتی
##کلا
درومد
انتقادی
devil
##ریع
صحنهای
##lection
##پارس
##ric
گوزن
مریضه
معلول
یبارم
یانه
##yb
بون
##شمون
ولایتی
##ahraa
۰۵
تلاشم
##acher
never
isna
نمرده
بفهمند
##ineh
۰۸
##oooooo
رواج
javanmardi
##hy
##جهانی
نساجی
گلگهرگیت
دوراهی
آغا
behnamsamadi
abed
##۷۹۸
میدانست
##let
theh
یئ
mohajer
پرخ
پندار
هروز
مارتین
##اهام
دیتا
حکوم
بغضی
داخله
##bert
مطلقه
mozh
premi
##tehran
##asani
خیابونی
یابو
نارنگی
مقاومتی
گرونتر
مکس
ebrahimi
پابر
##oogh
##۱۳۷۵
rezaee
مهی
نخواستم
bentol
بزرگواری
جالبتر
۴۲۰۰
یکمم
یازهرا
اصولی
شوخ
##jeb
دونستن
هلاکت
khe
کرهی
لطفن
نمیشناسی
لونه
مرس
۱۹۸۸
first
boycottiransham
davari
##ker
دیونه
هومن
فوریه
بزرگتره
uncle
gholam
زندانهای
داس
دوهزار
بمانی
هفتس
##ingu
##۱۹۸۰
دقیقااا
نکتهای
##گزاران
##gon
مکالم
##uga
بازو
نمیبینن
قت
##۱r
شیاطین
##mk
معروفی
ساختند
دچ
##ضایی
سمتی
saber
##پلی
جاویدان
کصشره
تشبیه
fatirain۲
روزنامهنگار
oo
##هههههههههههههههه
mus
گلابی
سیف
ترینه
نگرفتی
قیمتا
العین
get
##بینم
افسار
itsab
صابر
naren
عااا
کارن
اسمشم
حواشی
خدمتم
یخورده
سوگواری
aten
##حاد
bang
چونه
سرکلاس
آوردید
صبحه
زیباک
گونهای
##شکلی
سلولهای
چشماتو
ثانی
ایرانیهای
نمیخاد
##ززز
##اتا
نابغه
##زهی
اسپانیایی
اسپانس
hypnos
صداسیما
##usts
چگون
عبدالرح
##۰۹۰
پسفردا
آماری
##راهی
گیریم
بارانی
whol
دوزخ
معقول
iraj
آلم
قلاده
هرچقدرم
خوبت
جمعیتی
azam
حرفارو
مایههای
مکانیک
نغمه
cris
zer
الظ
##acc
۰۹
طلسم
اوخ
##ato
بینمون
fed
کوشش
راکت
##ابرای
khud
فهیم
نە
##کتیر
فاین
##ماست
کشیک
سمتم
##ارتا
##rii
akram
hed
مسئلهای
ghazi
چرندیات
##میکنم
میگویی
بنازم
##asg
ننویس
خایهمال
خدابیامرز
الیه
محیطی
##tive
رذالت
سوک
تسکین
لنگه
ایدل
##vahid
##won
نهنگ
##boorr
مده
ارکان
دهنمو
majjboorr
خرا
حذفش
فرمایید
مزدوری
##۱۹۸۱
افتد
نهال
اکسوالا
yasam
##zare
علتش
طالبانی
ln
zyn
حامدی
marzie
##zdh
##سلی
##nie
جاییه
thel
favor
##جاز
بایننس
نمیدهیم
خندهی
##iix
##dini۳
fi
کریمان
مژده
پروپاگاند
اندازهای
moji
برنمیتابم
رکاب
وثی
##ehn
گنجی
##وهاش
bee
##reas
خوشحاله
سیبزمینی
کانالهای
raz
هپی
##کردی
بودش
بیسک
جریانی
کلاسا
mist
##نینگ
حکومتهای
شعارها
دریافتی
jimin
shahrzad
halldini۳
angrygirl۹۷۳۱
##know
اطرافت
میخندید
##کلک
masih
##abakhshi۶۰
ابهت
khudabakhshi۶۰
بازجویی
نقره
دکتره
خطرناکتر
تدوین
##pish
فرسوده
محضه
رفرش
رهنما
جونام
حرفتون
آند
میبا
درکل
فسنجون
##ecution
ardeshir
علاقهی
محموله
واردم
خبرم
boycottiranshamelections
##ضلی
نیسان
بخنده
##psycho
میباشند
سرس
اشعار
##برگر
پاتو
woman
خجالتی
ومی
فرهادی
استادا
بازگشایی
##خیخی
##dom
دوبرابر
##تومان
##emar
##rist
پرستاری
سرکو
##chic
##khosr
غمگینترین
salimik
ظالمان
salimikouchi
پیست
هدفشون
##biz
توک
سنش
##gor
شعب
خطره
لینو
پژو
میخونید
پناهیان
لنز
ghasem
فقدان
رنجی
fal
شریعتم
bitcoin
خودشونن
irmassacr
yeganeh
shahbazi
ناگفته
##abdolreza
##avali
##ereza
##سایی
روحانیون
taliban
##manam
##inho
کاپل
davariabdolreza
##موند
##زندگی
tav
saeidb
بخرین
سوزان
fahimeh
##azir
باختی
ناجوان
hoss
تطبیق
##khal
بلاتکلیفی
انبه
کى
آهنگه
dot
شیدا
ونو
خراسانی
##iiir
##ziam
غایب
ghased
مداخ
mahan
١٢
eshgh
آرژانت
ایرانشهری
پارادو
هزینهی
##mamad
حنانه
قشم
کارشو
##aaaz
رجبی
مضح
##taa
ناشناخته
هندل
صحنهها
قدردانی
واندی
میتو
بحثهای
##یاد
##اشید
جانا
ساعاتی
رحمان
##ایمر
##edo
##vir
##صاف
سینوفارم
خیابونای
شیرکاک
بتونید
سکویی
خوردین
abrahim
##قدری
diam
chap
دلشوره
نمیتوانیم
معدل
چشامو
##صاری
کرک
more
افتضاحه
فیلمبرداری
##ثانیه
pop
##۱۳۸۰
نگرش
##oore
خبرش
##okon
irmassacres
دستو
ارای
##بگیر
hooman
زیباکلام
##aret
لباسشویی
twitter
یعقوب
##away
aghay
انقلابه
moslem
##ica
خرابش
وچ
##خونی
gandom
پرانتز
براندازها
وید
##yma
پانترک
میخوابیدم
##kon
##۱۷۷
واویلا
jooj
master
فلافل
دهباشی
lol
اخلاقم
دژخیم
گلد
میگرفتی
معلما
پدرتون
کجام
الانه
اسقاط
صمت
دیدهام
گانه
##اشناسی
بشناسیم
هشی
ہیں
شماهایی
saeedmaaleki
هالیوود
khaste
##۱۸۱
نپذیر
مقصود
طهرانچی
بیراه
زدایی
ریزه
چندانی
##ings
abo
امون
ببخشه
##آلود
اپراتور
عاملان
رزیدنت
##۰m
شرحه
تقلیل
parad
میکروفون
کصشری
مودبانه
مبهم
هرج
ارن
دستات
تویه
##وزم
پرتغال
قیافهی
##جمع
lg
##hed
العم
پینک
ویدئویی
##فتگی
مخرب
شخمی
کوبا
فاکی
الهم
هموار
غب
##ights
##ahrivari
گربههای
kiani
دیگهام
آمازون
##۲۴۴
یونس
تقلبی
i۶
همهتون
کردنو
بیگانگان
##exo
دوساله
اونیکی
آنوقت
مساجد
پینو
##ares
##۲۰۱
##isp
بیف
کوبص
پرسیدند
تدارک
##azh
پختم
پتیاره
جوابمو
masou
مشکلت
##ففف
##آی
اشون
نیمهی
salehi
نبینید
اورا
پاسخی
خوشحالیم
۲۰۹
پینترست
یونایتد
##ساط
حوصلهام
رامبد
##گانش
خطری
##۹۴۱
unknown
##لاری
##isam
میخوانند
دروغهای
نبره
رقیق
پویان
##kia
##صده
مفیدی
ghalam
لاج
صدمه
ننم
سرطانی
yazdan
##اشیم
dometri
dometrishoon
نخستوزیر
nava
دادسرا
##وارد
هکر
قاره
٩٨
##اکان
اجلاس
شکنی
میآورند
گیاهی
حقشون
نقی
کوچیکم
دراومده
شسته
##tas
مضخ
پولو
کفار
اینجارو
ورا
##abr
##دوست
مغزشون
عبا
یافتم
کاندیداها
مسلمانی
چمران
جوابتو
نمیزنید
design
استیک
نحو
cristo
چشمانم
شارژر
اکه
بهسود
michael
mod
تعرفه
روزمو
##لیست
بعضیاشون
اسکات
##قطبی
نگیرن
bid
میسر
پیوستند
اگاه
##رزاد
میذارین
##loc
رشتهای
welcom
قیافم
پراز
naee
##گهدار
اونهمه
قلو
چلا
##رق
دوهفته
ez
##arya
cur
بسکتبال
میاومد
iheart
زورش
##ااااد
##خوانهای
کسشرا
ایناس
اردک
درسا
داشتنش
حیثیت
##خام
سادهای
چگ
bsh
تمساح
طبع
marzieh
start
##اتیو
##۹۹۲
آرامشی
هردفعه
جلوشون
امتحانی
احت
احسن
shahabb
دایناس
سرپرستی
الکترونیک
مشخصا
سات
لور
دوج
خزعبلات
توافقی
پازل
##پرا
##aco
عمیقی
خامهای
رحمی
##imar
##erg
نشونم
بیران
بیاند
مدته
سناریوی
بازتاب
hay
بالاتره
##پرسی
انزلی
##ناکی
##ستیز
جیگرم
کروناست
##میشم
##sy
مجبورن
##اتت
##saee
آبتین
دنیاس
##گونی
میخوردن
برمیگردیم
##ړه
##۲۲۸
ناهید
واجبه
romin
آخره
عطار
دخترو
یاوه
بنفس
sadaf
ناکارآمدی
بمیرد
چگونگی
taehyung
اعتباری
dm
خخخخخ
تماشاچی
غنیمت
til
دنیام
بزا
نفهمیدی
naaz
کالیفر
##ubs
##aver
crazy
نکشه
میارین
انانیم
##asghar
بستیم
واعظ
argh
##۱m
##۱۹۸۵
کارفرما
وئ
نوستالژی
همم
۸۷
##زیز
فروشان
آخیش
تجربههای
ستارخان
اسفنجی
##زیر
نمیگیرد
جیهوپ
اسپرسو
##ative
مسن
میشنوه
ابزارهای
جیبم
##سنس
سازد
یاسر
حذفی
لجبازی
اراد
قسمتهای
##game
گنه
##laf
##۴m
##مهای
اکانتای
فرزندی
میکشت
میخاستم
معاونین
##الک
hajj
استانداری
نخوام
##۱a
فرزاد
mahdis
##utin
##لامت
mahy
موری
کشان
صداها
هیپ
##shz
politics
russ
هزارتومن
ویز
faeze
##سئ
asm
##رها
قشنگت
باباها
جنتلم
مشخصی
kiana
عریان
کصخلا
حیوونا
معدم
نعمتی
##شوی
دزدید
دلواپ
##sv
توضیحی
سازه
وارونه
##جس
##ried
بامن
##غاز
people
##z۸
##قاق
نوزده
tae
##agi
تگز
آتشسوزی
آریا
##ععع
نبرید
ساین
##۷۶۶
بهائی
تعمیم
banafsh
۰۷
sarah
ادکلن
مجبوره
بگردی
چکش
##حتی
شوهرت
خصوصیات
تاشون
مفتخور
گرافیک
فرناز
افلاکی
mc
##elmont
##faf
مهیا
##ویا
صلاب
##bakhsh
vic
##۴۰۴
١٣
العمل
بیاورید
##نیت
آنفال
زشتم
وظیفهی
saeidbelmont
##lay
پرتو
مفق
شکستم
##ehrad
dolphin
setareh
jahang
ازبک
آغشته
##دنی
نوکرم
پرتی
توییتمو
اوراق
bll
داغونم
چرته
##rem
گیلاس
##anc
سیکتیر
اشو
شدنت
ارضی
وردی
رادیکال
siah
صلا
رشتی
##ثم
شکمم
##owl
گزارشها
مبحث
براب
برگرفته
گروهک
کاشته
nob
##mov
##لیگ
ضمانت
وبلا
چیده
هجران
dir
##andaz
کشون
مملو
تدریجی
پاستیل
##نوردی
یابی
فرن
##hesh
تناسلی
##ocean
نقدینگی
فاشیستی
##کیم
afshin
درازی
نذارین
تریلی
اکران
روزام
کلاسم
سرمایههای
دربارش
mitra
دمکرات
agn
غربالگری
معتقدن
معادن
کوفتیه
##راهای
برعکسش
##العمل
غیرمم
ریمی
کیرمو
##ouch
noon
##نننننن
رومون
ashraf
باار
bahareh
عاطفه
پیشکس
تصادفی
bant
تیرم
اتریش
منظورشون
mym
کسل
##balochs
آسیبی
دریده
helia
##وغ
تحملش
##yu
##اشتیم
esma
غافلگیر
درسم
آقاهه
##قص
نامردا
dokhish
مضاع
littlekasra
##ouki
گیان
جنابعالی
تخار
ix
دوسه
##فک
حتمی
سجادی
dokhishahrivari
نمیدادن
##وە
##iiw
اسپرم
ماهان
نریده
nak
##elli
##۰۱۱
هجده
تمجید
غور
تکی
دیستنس
##ولن
##۹۹۵
princ
##۰۹۷۲
شجاعانه
شرفا
عاخه
##زدم
azarn
دیکه
اماکن
##ghazal
سوختگی
##anst
اکسپلور
nfs
##gham
مشو
نزدیکان
سزاو
عربها
میکاپ
ویک
۱۳۷۸
تجربهای
خوره
##shk
نگات
##اگاه
شرایطش
##ونیا
پاسگاه
saam
بیرق
##hasan
جوونه
##خوانده
معضل
amire
چاکرم
نمیخواهم
poor
پارگی
نمیفته
##argol
##اهب
نیگا
صراحت
##ثن
پایش
میافتاد
صحنهی
تباها
##inbow
dev
##لوچ
قایدی
آنکس
##ینیم
ولشون
##ریها
عبادی
قوطی
##naderi
خوشکل
##hoseini
بپرسن
##res
##۹۶۱۹
روحیم
کاترین
کجایید
##۱۸۹
##io
##rail
سنا
لوکال
یاز
مظلومی
آتشی
گرگیج
وهر
میگرد
انداختند
نیوفته
مارکتینگ
wholelot
##aeii
##otv
عمدتا
لاستیک
gal
دقیقاااا
متلاشی
شیفته
بیتر
mehrnoosh
##پایه
##aap
نخورین
نیاوردم
زورت
##ped
پاشون
سرن
##con
user
مونا
##ومدن
hann
amir۷
جوانها
jafarimhj۱۱
ملاحظه
بپوشی
پاستور
نتوانست
بقیشو
better
ریختی
##ouf
میآد
baha
نیشاب
ابرقدرت
##insh
واقعیته
شارلاتان
wholelotsof
متا
kamran
باقالی
جریانات
کاندیداهای
##soltani۲
##mb
##لون
مکاتب
رزق
alli
هشتگا
همینقد
وایساد
دونت
مراعات
دلدار
fardad
##efor
##۷۰۰
اموجی
متفکر
bey
self
ten
##ahy
jung
سوییس
ko
هیأت
گذروندم
##eback
برساند
پدو
یکساعت
حواسشون
غربگ
زیدان
##بانک
بیات
##۱۴۷
ai
magh
ahmad۹۶۱۹
ahmad۹۶۱۹۰۹۷۲
امتداد
نپرسید
##iibab
هرآن
دیکتاتورها
vakiibab
vakiibabashii
ساختیم
آشناست
فقید
sign
tol
ربطش
رویاهای
یووه
##iiit
##۳۰۰
##adr
کرزی
بخواند
نرسد
جوهر
اکانتی
کنعانی
کسکشی
mahdiyar۱۴۰۰
دیدنت
بمانم
محتوایی
##ههههههههه
مازندرانی
خانوادت
عطش
نجاتم
عبارتی
ارمیا
bantaliban
طرد
نوبل
نرفتیم
قناری
ولگرد
لینکدین
نوکری
مادرها
پدرسگا
الکبری
دستکش
بگاد
##روزه
نموند
کمرش
مبه
تائید
نمیکردیم
۰ayda
سیمرغ
irmassacresbalochs
عثمانی
ret
۴۹
ارش
کسر
abrahimsoltani۲
جذابن
نمیگنج
میمیرند
##ias
##ublic
بوسید
hess
atieh
سافت
کوچولوی
sour
عدس
سیمان
همزاد
سرگیجه
کنجکاو
چراکه
درنظر
فرآیند
rzi
rbx
##امتی
بشور
گوشواره
منصفانه
iheartawards
خمی
pouriy
##dl
فشارهای
peymanpp
##ااااام
##زنه
ریاستجمهوری
mg
tit
جفتک
قرائت
##osef
عقلانیت
malek
فرجی
فریزر
کاین
zare
پاسارگ
mamd
دوستامون
ریست
##armand
اینجایی
##ali۱۳
پشیمونی
hosna
الکترونیکی
thr
باخبر
چسبون
louis
nikashakarami
نمیشو
دابش
عجایب
راستم
janan
tanha
##sak
منتظرش
رفتنم
##فاهم
##۱۹۹۳
##mos
واتسپ
بارک
pen
##phoria
fel
الإ
جرقه
##۱۱۸
##achika
ناپل
##chicachika
ببار
##نگری
خونههای
۱۹۹۶
اسهالی
گردون
##سکر
امروزو
##رتی
fin
پاشین
بسیجیان
shan
soc
yyy
وآل
چیدن
##لتس
قشنگتره
##پم
واگذاری
##orteza
خشکی
معذب
##jt
دوقطبی
آمدید
دوپ
##afghan
اونطرف
میگما
##الیستی
چندت
بسپار
azarnoosh
رانتی
##yf
تسریع
##arda
قدش
خات
اجتن
یونانی
##iaw
مائ
##amani
arashghafari
بازداشتگاه
##دستی
کوفته
always
فکنم
##۵۶۹۴
##تیشن
##egaan
sardar
arashghafari۸
الاسلام
ادعایی
سراغش
بدتون
##afg
##جک
۷۱
##سرای
موفقی
pedram۵۶۹۴
##emem
استالین
##اطع
هشتگها
مینداخت
eri
##akhan
##۱۳۷۴
لوکس
خدانگهدار
##irian
بارسلونا
بلدید
خستهم
leila
کتابخانه
شعاری
مشکلتون
##انیوم
بزرگتری
eur
پناهگاه
میگذارم
تمر
قبرستون
فمنیسم
##باشه
delvand
delvandeli
##cide
nez
##ابن
opinion
##lif
همهٔ
آنا
تحلیلهای
پچ
دلچ
##۷۸۳
دیماه
azarnooshzahra
مردانی
نداشتید
##ستقیم
دلیران
releas
##ahumanrights
##۳d
##راپ
##iny
##mis
میترک
آسیایی
خوندنش
خانهای
##ocol
محاسبات
##asab
صگ
ma۷۷
##جالی
میپیچه
نازه
نیسم
وضو
میذاشتی
نوچه
اندیشی
##بریدی
ملته
تشت
##غالا
##fg
سینهی
fre
##ayed
##lik
سپردن
نمیمیر
ma۷۷۸۳۱
جدیدترین
where
##بها
ich
##jat
کوسه
بعدازظهر
ترافی
متفر
فتوای
بابابزرگم
##نید
ونی
فرستادی
حداقلی
٢٥
وضعیه
پروتکلهای
##esp
##cur
##jab
##bash
کنکله
dw
کپس
##۹۴۹
سینی
##پیشه
##۷۸۹
کارات
یکیشو
##mmmm
شبش
money
اسدالله
baba
##enix
میزبانی
معتقده
david
دکتری۱۴۰۰
انعکاس
تفکری
soo
kris
ایکی
##۹۸۹
vel
قاتلین
shahri
pouriyaaaaaaaa
برکن
##لیسی
##ندش
یونگ
##tavakoli
##دلی
##افشاری
وحی
گزینهی
ارغوان
گوزل
khanoomi
mehdii
pal
جدیت
##کسیون
حاضره
غزنی
اصلش
##پوست
maa
زمستونی
##shadi
##iee
##pey
pot
##سترن
ویژهای
فرخنده
حرفامو
نشریه
##ستیزی
##oozard
سئوال
نامناسب
وزرای
seok
justs
التی
طوطی
##irza
##sti
نیرنگ
دوستاتون
میخاره
ویترین
##۹۵۴
بتوانیم
venus
بیرونم
آرمیا
۰۴
رینگ
##سترین
##جواد
تلگرامم
صفایی
usahumanrights
##vard
آلز
فم
شیشهای
خیییی
پوشک
پرستویی
خاطرم
ذخایر
hop
خدایش
تورکی
##ste
لواط
نمیدادم
کابینت
نمیکشید
هچ
بعضیام
mosh
صبونه
اکلیلی
برگردید
میفهمیدم
##eoncide
shiftegaan
##ماخ
شیاف
مستمر
رحمتش
حرومزادگی
حیله
قبرستان
لاقل
##r۲
ازل
بازوی
خسروی
وثیقه
تروریستان
یہ
أن
ژل
تابلوی
witch
رژه
۱۳۰
دنس
داشتنت
##ornado
ng
گذشتم
لبخندی
بیشرفها
##آبی
abu
##۲۱۵
##kitt
چرایی
خانوادهام
##khab
۱۷۰
سطوح
هیونجین
فقه
اونجام
##طالب
کهی
##۱۹۸۳
بنگاه
یکباره
هدفت
##ouw
تشنج
lev
nast
دزفول
##آموزی
ath
لت
##raa
forever
۳۰۰۰
##woman
mpn
یکساله
taheri
پنهانی
فضیلت
معط
stophazarageoncide
میداریم
##۶۲۹۹
اواتارت
##آفرینی
ثریا
سینهام
treas
سوییت
۳۵۰
lon
بعض
توحش
تیکت
madam
ورزشکاران
##اهاش
##بوسی
بازیگران
##ادماه
مکانهای
abdul
ارزشها
فراوانی
کثیفترین
کشتم
شریعتمداری
بادا
وعدهی
نتونستیم
انانیموس
آلی
حماق
معیارهای
radiof
toozard
کروز
نمیافت
میایی
سهیلا
ayda
مدتیه
##elin
مسئولیتی
##۵۶۶
وایسادن
جوب
الکس
##parish
کیوان
##ربیه
چرم
اسکول
نامزدهای
soleimani
بهجای
بیسوادی
وزنه
آشام
هیست
حقیقته
باقیمانده
crypto
میریزیم
برعکسه
ژنتیک
آفرینش
کونیه
داغی
بگذرونم
##ohre
اینطوریم
کاکائو
۸سال
pms
توییتایی
بالاش
پولشویی
##۱۲۵
فوبیای
joker
##پاست
hajamir
ارزونتر
بازیکنی
یادشان
ژنتیکی
##adii
بورد
سرمه
داداشی
rezvan
انفعال
##نهایت
ندهد
آیندم
وایرال
سونگ
مردگان
amirreza
زندانها
گزیده
ولمون
کراشت
##یدوستی
anit
نیومدی
عاقلانه
##bir
ابلیس
میخریم
hosseink
کہ
##eeb
app
سهیم
اهریمن
چیزش
پدربزرگم
##reg
رسانده
میلنگه
##ورهای
faryad
##oma
فمینیست
برانگیز
سیاسیون
مومنت
narcissuscrypto
##rlati
سوپرم
عنا
عقلم
##۱۰۴
##uel
متحرک
##سالار
آدامس
مبانی
ناچیز
نودل
##شود
زندگیمه
سنگینتر
شنیدین
##وبر
مهمیه
##amor
اکبری
##lamic
مزاری
##۷۱۷
عکست
##injast
مانیتور
##شهید
گمانم
واهی
parpar
ایدهی
سلاحهای
آیم
سبحان
معتقدند
##anaz
بنابر
##awn
##zer
مهمات
بویژه
نسب
بردارد
##ovsky
##۷۸۷۶
paar
کدخدا
baz
سیزن
شکا
##۰۵۰
##ilo
##صدای
ذهنمو
##نیف
قبانی
abram
##endetta
اونجور
##eldm
اپوزوسی
هیییی
اجازهی
افزون
تلاشمو
##اصب
همینها
تحوی
میفهمین
repor
پارتنرم
زک
##جره
لاهیجان
##حیل
frank
##خبر
بیخیالش
انفجاری
مادرقح
جاماند
حباب
lover
gog
سورا
زمانم
hip
##لیمانی
گرل
بیتفاوت
اولیش
##۷۸۰
عاف
میشناخت
##نگام
تراکن
##una
madare
##۰۲۵
اتاقت
khokh
prom
وزیری
ray
eq
حوری
مسولین
بودنتون
adr
##رهار
ویپی
مفر
##jafar
مزهی
گشنم
تاراج
کارارو
##۲۱۸
##ofeldm
##hoenix
##blofeldm
tedblofeldm
tedblofeldmozbi
امیکرون
jackofcl
##farahzad
jackofclubs
##ندس
تسلیحات
مدنظر
تنور
int
بیرانوند
عماد
##tuan
نهاده
##gif
hd
فعالی
##رئی
##سیو
ایرنا
##۷۴۴
بما
##anof
نمیخونه
علیدوستی
##۱۲۲
##اییی
چارلز
##جز
vahidhdi
##dalirian
ganji
kyungsoo
وقتیکه
پیشروی
##avanparish
تعظیم
marz
کروبی
بازماند
rajavi
سیز
بخواه
خبرگان
voairan
شیطنت
gam
kamal
msarlati
##asm
توسل
##soon
##nest
##میوه
hal
##کیفیت
تمنا
هواست
جغرافیا
##انشو
طاع
غض
خوابای
وارداتی
##atriot
میج
##کسل
بشکند
همایش
##ردشت
##دگی
پلان
چنت
نمونهای
بیقر
کتف
##رع
لیستم
##eghl
فرقش
کصشع
##طلبا
هامونو
##اسط
مهس
آرزوهام
نگری
دستا
##افزار
لیر
جونتون
سکسیه
واکسنها
##اااار
قصاص
reihaneh
خودزنی
ایرانمون
hosseindalirian
mohadeseh
ذوقی
حلالت
دت
مخور
دوربینهای
##plus
manototv
دولتم
نسبتی
اوره
##ddd
اتاقی
درموردش
sahar۱۳۶
اژدها
میگذرونم
##بوب
##ideo
خداکنه
بدبختیم
نیارین
premios
##alirez
rr
رگباری
جاستین
##ookh
betoche
مستضعفین
کذب
mac
زیرد
sisi
shay
بخوانیم
کامران
عضوی
##ional
##کارا
مینویسند
bach
##ainst
گریان
هیئ
حرفهایی
زیادم
بیزینس
##ws
لیکن
شایعات
انگیزی
##عتش
باورهای
فحشا
##ho۴۳
headp
قزاقستان
##۶۲۹۹۶۲
##ho۴۳۶۲۹۹۶۲
headpho۴۳۶۲۹۹۶۲
کریه
##دیه
ترکم
غلت
راهنما
itsabout
باتوجه
سرداران
هزینهای
خوندیم
خاکش
##ostic
fardadfarahzad
ترسیم
##lakof
##ical
نیاورده
khokhlakof
الآ
اشغالگران
پیشکسوت
سرهم
صحیفه
food
کامنتها
بیحوص
استغفر
فامیلای
##پخت
خوشحالن
هواداری
٣٠
##ezani
##۶۳۴
##گاندا
عمار
آذربای
##شام
##جاخ
آبهای
بسلامتی
پروژهی
آبگوشت
استانها
nash
##yab
اخوی
##efar
پشماش
علاقمند
حزبالله
دوماد
jane
میزارین
wall
کارتم
سفیدی
خرچ
جرمی
fatim
##ورها
second
همفکر
میشوره
##خلف
بریزین
میمانیم
بخشیده
میجنگن
##inf
##kor
راهاندازی
##afy
جرا
##ئے
##۵۵۶
برگردد
##تشکر
##صلاح
##joo
میفروشم
famil۲r
##amp
dokhte
bash
شلم
دهات
عبدالع
hab
##bagh
خدایان
##بنی
آجیل
جئون
هرکار
گوار
قولی
خسیس
آهنگا
مذهبیها
hard
مرکب
یوون
##۹۰۶۸
کنان
اوپ
##eve
۱۶۰
شباه
farahani
کاریکات
خواندم
تسنیم
reyh
##pakistan
##سافت
ریکو
رودخونه
متش
لنگر
fak
lgbt
زره
##یمین
اعط
توییتاتون
مویی
محفل
نزدیم
دیری
artakhani
رمانتیک
##گهای
ردش
جنایی
آلبر
##park
خاطرهای
فاطمة
اردوگاه
میدو
جرج
##ious
تگزاس
مظلومان
tornado
گریهام
نیای
ملایم
kabir
ناگز
کوتاهتر
چماق
پوکر
##farhad
بازاریابی
ip
##oe
tasnimnews
کارتو
شامگاه
thereal
دشمنت
کلهم
کنى
##zioo
hot
##k۱
غمها
جوانانی
hoj
yar
یکصدا
آنتونی
ناخوداگاه
پروژهای
نارنجک
هیولا
rud
سرجاش
پروپاگاندای
##kids
##۶۶۷
##souri
##وما
شانزده
اوا
کشورشون
##odcast
درنمیاد
متعفن
مینویسد
##احل
##rise
سالهی
خستهایم
حرفاتون
##osi
حلو
خوبید
##green
##گرفتم
فاطمیون
ضمیر
نمیگرفت
##awz
##۱۳۶۶
باباشون
مصونیت
تشویش
radiofarda
مشیری
بیفتم
راستا
معناست
آمدهام
دگران
ضریح
حرومزادههای
##حا
##وفسکی
گورستان
تالار
بخواهند
##اااان
aroosa
جغرافیای
اوغان
nrgs
بغیر
##۶۲ali
moonchild۶۲ali
##صور
دسامبر
سزاوار
جندهها
پسرام
نشینان
##قهی
نکشت
کالری
##pha
دانستن
##۰۰۱۱
اروپاییها
friend
##part
حقیقتی
بیشماریم
توئیتری
اغتشاشگران
##ahimi
ایرانزمین
خمار
##nour
ضعیفتر
نخریدم
##books
سازگار
هخ
##۲nd
جانبی
گشایش
حصار
##قدی
دبیو
ساندی
پود
سوالا
صفوی
قیمتهای
تکمیلی
ib
ver
سانتیم
##aaei
عهههه
##kari
##گوشه
بانگ
itsme
##acism
##رون
##۱۹۲
زالو
بیلم
شکستی
کبریت
osc
##میکنه
asayesh۷۶
feree
فردوس
arch
کران
##rack
سرخی
املا
chi
آرزویی
##mirz
دهنشو
rahil
##impson
ریشهی
دستشه
خوردنی
ثابتی
##ومون
shahed
parisahastam
parisahastam۵۸
حقا
##زت
##zeh
##٠١
سپرد
نمیخوری
استودیو
nahid
need
##فیوز
ele
##نژاد
##مک
##۸۰۱
نفسهای
##dark
تشکی
جمهوریخواه
شیو
##eft
دقایق
بیغیرت
##asd
خرخره
نکردهاند
premiosmt
میخاست
اورانیوم
باتلاق
موظف
خداب
##باع
۲۵۸۱
##۳r
اگز
طریقی
خصلت
اوتی
لیبی
دانید
ماشینا
##یدمحمد
۵۰۰۰
مغل
##گوست
کامنتا
تهد
میادین
نذاریم
مهدکود
دادنه
وچه
شانسم
همصدا
نمیدانی
ارزشه
دوزار
حرامی
جررر
جکسون
ازط
سرنشین
فیش
ناسیون
##قولی
حرفشون
کفایتی
اخرم
گوشیه
دراورد
نذاره
اصولگرایان
بیستم
سالمی
دکترم
sami
behrad
khode
خییییلی
دیدمت
lls
فداکار
خوبا
مستعم
نمایندههای
behroozrezaei
##ییین
شبنم
تهرانه
تونی
دقیقی
کلوپ
ونک
لزومی
سمنان
engh
توانا
سینگلم
بردارین
بسط
##رمین
پتیشن
برانکو
داون
دیوانگی
##اسون
##۲c
بمانید
جسارتا
ordibeh
##pol
beth
##ward
هیک
ارجم
تخلفات
##aher
کیی
دروغگوی
میفهمند
نمیارن
##vmiaw
##astan
آیلار
##air
##pk
کارمندی
##انتخابات
حکمتی
premiosmtvmiaw
یورش
تهرانم
دوتاش
dari
جانانه
##wm
بدبختم
allef
جهیزیه
##inson
مریزاد
توییتات
atiyeh
behroozrezaei۶۰
foad
##حص
##لینک
ناآ
نیازمندیها
##اشین
اتاقمو
گاوه
##td
سرسب
ماهو
au
##۱۳۸۴
نوشتند
justsay
نواب
تسلا
rezaei
فصی
فید
گردنبند
کالیفرنیا
جلادان
آرژانتین
تجلی
کاشان
توجیهی
##miss
کتابو
pary
##nan
سالمندان
ترام
##۱۸۵
##afshar
##akhm
دراوردن
کارگردانی
soli
گیرت
گیرنده
noval
ولیعهد
##akr
سوءاستفاده
##band
عاری
زمست
##jman
نمیبر
رفتهاند
##ishere
نزارین
##azimi
رهبرى
##مهی
شرع
##nm
novaljin
novaljin۹۰۶۸
litttle
ran
تتر
ent
چیزیش
کتابا
بختیار
آنم
##eton
mrrail
عزرائیل
دبیرکل
mrrail۴
##rebook
فرمت
وفات
zohreh
tir
##وته
nm
##mob
رحیمی
##عمو
tomlinson
amir۷rebook
amir۷rebooko
بدانی
اسکای
پارادوکس
prog
بیزن
ماکان
##۱۲۹
##razp
تیمای
bshrazp
انچه
##ksaz
aroosaksaz
نتفلی
ناصری
آموزشگاه
نیاین
##iii۲۰
دعوتنامه
کلماتی
هیزم
دادگاهی
##eter
madrid
سوئ
##چیه
##خارجه
mamamoo
میجنگم
استیصال
قلبهای
انقلابمون
احمقه
##اسو
dj
kabul
بیشترش
لید
##epper
میرسان
دقیقتر
shll
مایکرو
##ench
##۱۳۷۸
##tial
##yak
##ودند
پنهون
متض
mhm
agnostic
یغ
##sed
تلخترین
##حش
روزگ
چشممون
چیدم
میسا
##یمن
محدودی
bt
##ببب
alex
صلابت
kz
name
طای
سرچشمه
نفست
ائله
##رزی
تجسم
حاضرن
وارده
##lwt
بخیه
صفحشون
marktuan
نسخهی
احدی
##ebrahim
##pot
قافیه
رنگه
##oned
قرین
shit
آهنین
حرفشو
وسیلهای
##edme
بنای
ریپورتش
ابال
المومنین
روزو
اختلا
۲۰۱۵
acc
##abani
ایدههای
تندر
##nevis
##۲۰۲
میدونند
انتظارات
آزادگان
نمیرس
میخونمتون
shabnamsh۱۷
##oura
قرمساق
زرنگی
ویلای
حاشی
کونمون
##امید
کناری
##shian
کمونیستی
حقشه
##اپذیر
##۱۹۸۲
##فرین
##mahm
سامورایی
پاسداری
همدست
بپذیریم
##جابی
دوستدار
مستعان
سزای
##غا
##isen
sss
طبیب
حرفتو
##یدیه
##۱۳۶۵
##good
عقلانی
کهای
ایرد
مجریه
##ریقایی
##justice
##iishere
قرنها
##ser
گذران
paz
ساکنان
cand
##شمو
وسطی
اختیارات
تأسیس
نمیشناختم
رواست
##سیخته
محفو
##banooo
aqa
##cre
دوتاشون
تیریخ
##heyd
مقبول
##اهدی
##ext
بلدیم
مهاجران
غمانگیز
پهنای
فرعی
##im۱
##zali
گرفتگی
تصفیه
مارمولک
شیرکاکائو
##xc
##icom
اقسام
استوریای
##اکتیو
##oca
ندادید
چشمشون
تحریمی
لزبین
انیم
راهنمای
tof
مغزها
نمیفهمیم
هجر
##باخته
مسلمونا
نونوایی
۲۰۱۶
همونیه
بچهدار
مادرجندهها
کتب
miz
roo
کردار
گمرک
میخوابن
هوشیاری
javanmardi۷۵
کامو
کنندهی
نیمرو
هوادارای
##tb
##نوشته
##ality
میترسیم
ارزشیا
مینویسیم
مامانبزرگم
۱۴۰
گلن
##etern
itis
##elah
toot
##oamin
همونیم
گیتی
عباد
##۱۲۳۴۵
یلدای
نتفلیکس
پاسخگوی
استرا
نوشتههای
هاه
##zzzz
ناراحتیم
راموس
طولانیه
عهه
##ربازی
ندهند
ho
##میوم
abi
تپسی
##alec
بادر
نخبههای
میدهی
parii
زندگیو
خفگی
لبنانی
تدبیری
t۷۳
جنیفر
##avaliollah
غذاها
دودول
ناجور
آریان
صداتون
اشپز
منظره
میبردن
الحاقی
same
khanum
گاندو۲
چهارسال
طناز
یاشاسین
هولی
چاکریم
##xkq۶
##lwt۶
##xkq۶lwt۶
جیبی
callmes
##lcue
##یتم
t۷۳lcue
t۷۳lcuexkq۶lwt۶
صحرای
شنبهها
سریالای
اسپوت
رنده
نزولی
ahm
غبطه
##idd
خبرنگاری
میدرخش
##m۱
##چش
##zoob
فرضی
hessam
shabahang
نگیرد
بدخواه
##الها
##itizen
abol
miim
مسب
##oskab
غمهای
دغدغهی
##oskabady
##۰۰۹۸
##elof
fars
جادهها
##hem
arshia
انگیزهای
tari
h۰
##xes
فتوا
بریدم
مینویسید
گرلی
sabz
nag
##روش
نظارتی
پوپولی
##فتید
##rahmani
جفتتون
قبلتر
amirkhan
چهها
marziyeh
بنویسین
هامی
اخری
ناتم
مطیع
داغه
profess
۲ndr
##madd
##big
توئیتهای
fw
mgh
درایت
##etan
خالیست
۲ndravanparish
مونو
استقلالیا
منهدم
درگیریهای
برائت
##arrr
##حساب
kind
hosseinms
##oha
تصورات
##دوم
##tane
بدبین
اتاقش
دعواهای
بلوکه
عاح
kel
خعلی
سواحل
##انسی
##askari
##onm
##ووووووو
منحل
نیل
blossom
##egend
##۹۱۱۹
##بالم
مسته
mosafer
house
بدیش
straykids
فرشاد
غریبم
##زنان
maede
zynb
برمیگشتم
یکنفر
##اهل
خض
مخی
##ysh
nahal
ادد
##دددددد
لوسی
##and۴
##lp
##ورین
اصلاحاتی
##سوک
رشتهی
##گشت
نعره
غسل
##وفایی
سوق
درمیون
دستورات
hafez
azadikhah
ghor
bahrami
کوو
##e۱
صید
##ابقه
دوقلو
پافشاری
##hosseinii
کربلایی
##ibash
راحتم
الانشم
khast
arvin
##alla
sarv
استخدامی
همونجایی
مکرون
ماهیانه
##بالا
نکشیده
khanoomijanam
درز
خاکم
بیکارم
##lirez
##rick
##aaaaa
leo
معروفه
mokhtar
دشتی
طهم
high
پوره
##asan
نوای
کالباس
تشکیلات
tat
یروزی
چلاق
##teen
امتحانم
ووو
##o۲
ناجوانمرد
مغلطه
##گوشی
##rly
بحثش
اینفلو
reporter
tv
هیچکدومتون
درایران
باقیست
احمر
فنای
##azadeh
شقیقه
بغلان
واپ
دلتو
بدیهیات
مداخله
##yoongi
##ashirazi
خیالش
هخامن
خدمتی
##sb
سراب
موهاشون
##jul
inazkam
ترکا
شخصیها
شیطونه
تعریفی
majzoob
قبرم
نہیں
غایت
همکارام
jafari
##row
دوبل
خیلیه
beth۷۸۷۶
majzoobis
##nar
دوای
فدایت
المهدی
کشورو
میهمان
مظلومانه
نمیکردند
agnosticam
سونو
##ashah
غنچه
ori
##aaal
سفارشی
لاف
لالا
کاشف
گزینش
presidentali۱۳
موجه
خونهام
جالبیش
پوششی
##porii
##چا
لیترالی
شرمند
imamhussain
ej
بستههای
mamadporii
دومم
جوانهای
bd
fox
##har
##ققق
##فط
بعده
شهاد
mariz
داداشت
naseri
زاییده
گوهردشت
##e۷
pegah
اهدای
##raab
خاری
##لیمی
خستهتر
##اصی
اسقاطیل
ژوند
المپی
aidin
مندی
##۲۱۴
خودجوش
مافیایی
نگذشته
##۳۶۵
btsarmy
دایورت
تقوی
حرامه
اخوندها
mou
##ng
بیننده
سایتی
amiralis
khalilini
جمعهی
کاسبان
sareh
مسائلی
توى
##بدون
ریج
گوسف
خوشمون
پذیرفتن
کسخله
لیمیتم
پوری
##۲۱۳
ramtin
خرفت
مضاعف
بستان
rj
میداده
کراشه
mamadreza
پلاسکو
سویه
##۱۸۰
متلک
فروختم
آخرالزمان
درگیره
بگویی
نگرد
حمال
بشناسی
حالیم
هدفون
koo
اونطور
مشکلاتم
##نها
ذوقم
sanam
میفرستاد
air
هغه
مختاری
##دف
##eslam
فلزی
کونده
##oung
جاهلیت
##ayee
##ssen
##plan
din
smtown
متال
پایگاههای
##۲ad
ماگ
کارمو
##۱۳۷۷
##وهام
خوشن
amirkhan۹۹
##cf
##خوف
فراغ
بیشمار
جاى
اشراف
۱s
مرحبا
پناهجویان
دلهره
بزم
##۳۳۴
داروها
رکود
پسرونه
alireza۹۱۱۹
##onnj
ghalamfar
hak
تابحال
##berg
اپوزوسیون
معشوقه
جهانه
ورس
##tann
##px
##exol
هزینهها
hosseinmsz۸
آماد
بیاورند
##یتان
اعصابت
نمودن
نجاست
کیرمم
##سوخته
بتم
kriswu
eth
کمرت
سگان
ایسنا
ابرآ
##alfa
##ییییییییی
bourse
جت
قلبمون
ارایه
غمش
نوکرتم
باتشکر
aboutk
سهل
ترقی
هولناک
امپری
کړ
چندمین
دستیار
واژهها
##onb
نمیشین
##رررررررررررررررر
##azin
bokon
بدرقه
میبارد
ارزدی
بلاهت
مذکور
##حدی
##thing
fatemen
میسوزونه
saras
mint
گردنت
میبخشد
سوغاتی
amin۱
تداعی
dehati
##سوار
##rap
ناگزیر
##ردام
اجناس
tim
khste
llll
طالبی
hussein
jin۹
##egirl
هایلایت
nii
##aby
سردر
آدمکش
هرکیو
امواج
##farman
فونت
بخاد
##taji
هواشناسی
گزاره
dany
bede
##eeli
curl
جاشو
۶ernest
##aloo
زدگی
##suit
##oamin۶
۶ernestoamin۶
sloth
میپسندم
##اتونم
حنجره
abramson
چلو
قناعت
##vs
abramsonalec
nour
ایفا
itsn
بخورند
khste۹۰
خدماتی
reflection
قش
میفتن
بانه
ساید
##cad
اسپانسر
##اااااااااا
هخامنشی
حومه
عشوه
aliboskabady
برافر
اذن
##۹۲۹
otaq
بنج
گاییدی
##jebra
isa
##پایان
##zon
##۷۸۹۹
نخوندن
العربیه
آلبالو
##epar
استخبار
##چای
هفتهها
marh
سهامداران
##بخیر
خندهدار
ایشال
نشانده
۰۰۹۱
هالزی
otaqfarman
mahdieh
دوستداشتنی
ein
##jebraily
him
syjebraily
##غهای
##۴۵۵
مقی
سوادی
##yeom
رباط
جادویی
##شال
iamas
ماندهام
ایوب
پرداختن
کتی
نگاری
str
rec
پیاپی
جواهر
نشانهی
##raisi
ظالمانه
اسکناس
jun
##afiei
عمرمون
برآید
نمیفهمند
##عهده
##بندان
بزرگسال
##تیکی
##elfel
میجن
##سیتی
میداشتم
##۹۳۱
##لللللللل
نمیگیریم
azadikhahjavan
##بسته
بالله
رحمه
دارچین
رسوم
ضدانقلاب
تونستیم
##oomaj
ازمایش
ارع
hajernest
روشنای
##yyyy
خوبیها
بردید
##ekar
توانسته
بیطرف
فلوید
کتابفروشی
بلدین
عسلامی
کتابش
آهنگایی
مذاهب
ماشینها
##qn
egh
جامانده
بتمن
لاتاری
میاییم
parv
زرتشت
##hamad
امضاء
agust
زوزه
بیمارستانها
mrnobody
film
نگردد
مخمه
بندهای
ترغیب
##نمره
تایپی
##جواب
مشکوکه
هویدا
##kham
نامشروع
ویدئوهای
nana
##yj
درصورتی
hoda
##erad
فلیکس
وادی
دوسپسر
گوله
غرو
کروم
cute
چرتو
istandwith
انفال
جنجال
##emy
سزار
حکومته
نمیدونستیم
ارزدیجیتال
##oey
ifarzaneh
نهادینه
kook
##cell
ممتد
##ابهی
دلتا
سوسول
دلسرد
آشغالی
صراط
مخاطبان
١٠٠
بپرسین
زارع
##سکرایب
##داث
فرص
saaba
فایتینگ
استعفای
موجودیت
##۱۳۹۲۰
شایان
آبه
نخواستیم
##self
راهها
ازبین
نامهی
میپند
##۶۸۸۹
##باق
حداقلش
جذابترین
##anjani
##masoud
zeinab۱۳۹۲۰
zeinab۱۳۹۲۰۶۰۶
العالمین
عاشورای
دوخت
بلاد
نازنینم
gi
##istam
pain
تربیتی
علیپور
جبههی
باوجود
اود
شبکهی
دعوتم
پیداشون
برازنده
اینصورت
کصدستی
محرز
اومی
جنگلی
هیچجا
شونصد
شیدای
##ااین
##سواری
پهپادهای
زرتشتی
pas
زننده
وایسادم
مرضی
##freeiran
طایفه
jungkook
##ben
victor
جنجالی
گویای
گاندی
##jean
##اهره
enfp
رادر
عصری
درمانگاه
##tain
ریشههای
dey
وسر
چسی
##داخت
پریسا
فالورام
##جانبه
حالیش
موردعلاق
خدااااا
مسبب
چنانچه
آشک
##qq
چاوو
ضع
##آورد
میدارن
دارمو
نوریزاد
اجتناب
مپ
روایتی
rezab
غصب
##قاسم
همینجاست
firfir
firfiribash
بامیه
##پذیری
##adaam
جایش
لباسا
درونت
lib
بژی
استور
باباه
همراهش
یارم
##پهلوی
مقالات
##راک
##۲۲۷
نیابتی
tanas
shahr۲ad
rana
##التا
صفره
اسح
think
behrouz
top
##lix
##۱۳۶۲
##گراه
gandi
رضاخان
رمزی
ننهی
غمگینه
آدر
##abmanam
hosseinkolak
براحتی
##endar
ساغ
##fy
##ekhan
واحدهای
هجمه
گربهی
نمیخوریم
وقف
war
##ning
معافیت
الجز
##ئینی
عزیزمی
میمانند
##شنش
ایچ
alam
انشالا
عقرب
joj
طرفداراش
aboutkiim
معادلات
##ضباط
شهرزاد
جانسون
مارکسی
عراقچی
mah۸
افتادند
رنگیه
روبهرو
hosseinkolakaj
آفرینی
توانمند
saabaabmanam
ناراحتن
طاغوت
##eden
##ighter
زمستانی
لاور
##غامی
نایاکی
##داده
standwith
اشنایی
بالم
مجموعهای
فراموشت
یاک
ندونی
##۱۷۰
inly
##execution
ثمره
بپرسیم
death
##eternity
inlygif
ur
##پاچه
روض
تکشون
مضط
mayb
##livesmatter
##ghaz
##ئک
amirkhan۹۹۸z
##uch
خوشتر
aria
اوناست
بنوش
درحد
##لامی
رفتارها
میخندیدم
نکشیمون
میدانستند
##mes
عزیزتر
تاثیرات
قلاب
۹yearswithexo
ایتی
شدیدتر
ننگرهار
ورک
##aked
میثاق
##شات
شیائ
دومش
ایشونه
حرفمو
ذبیح
##۰n
##۹۸۷۶
پنی
رابطهها
موندگار
آتئیست
ناجا
نظرمو
##عول
##zavi
ملایان
توهمات
اینستاگرامم
مخفیانه
تسهیل
درکم
مالهکش
##ینس
اقتصاددان
mersad
pardis
درمیان
clown
گلر
بکیر
##weetpsycho
iamasweetpsycho
گلرخ
میگشت
نمت
همراهان
##تتتتتتتت
##قنوس
نخورن
##۶۷۰
مخلوط
تایت
گوشیتو
##bookseller
سوابق
یات
blink
سرویسهای
amiin
##گرس
سونی
انقراض
الاح
دوخته
تصوری
lab
وااااا
golek
##ammar
##omy
پسرک
محترمه
بعدیم
##aviir
ققنوس
ایدز
##alli
##saleh
شبان
اجاز
##ichi
callmel
want
##حر
کشتنش
توب
الگوری
نبض
۲۲بهمن
##یمونو
##ساعته
خوردنش
sani
طرفیم
then
بیانات
shams
##vani
چسه
##اشان
دردا
کاپی
arghavan
golekaviir
bm
wr
ورت
چشمک
##aghajani
##unt
##eyes
##upid
سادهتر
میارزد
##سهی
نمنه
irpoliticalprisoners
۱۷۶
sinavaliollah
چالوس
همبرگر
rezamahshahr۲
زجه
سازم
هلپ
لبنی
مارول
##ozorg
اسپوتنیک
##انان
نهایتش
sahand
##اسا
غالبا
دلگرم
آلترن
چرااااا
##عیتی
شنوا
##iro
اکم
زبانها
لاغری
##anoo
ریگی
irpoliticalprisonersvoice
##olla
##ixing
fard
##but
خواهری
##ousheh
ازخود
lovesh
روژ
##افز
پیتز
##eternitywithexo
هکس
##ishe
rainbow
hen
دستهی
##zada
هیچکسو
mosiishere
##کده
##کافه
فلکه
قصاب
۲۲۰
##iia
بسپارید
greysuit
مساعد
ane
##elll
##فتند
اتکا
قاری
ریمیکس
gham
##۱۱۷
لبهای
ترسناکتر
جابجایی
دمنوش
هود
thedark
##کیلو
p۴r
sg
میساخت
لیل
##ify
دلخور
##shariati
الگوریتم
۹to
##ubh
wholelotsofme
rap
##nh
##ایون
##دور
راستین
چنگیز
توییته
نزول
میدونستیم
مجالس
عیش
قاصد
استیل
nay
##aras
##izo
۴سال
rag
پوند
##روا
دندونم
قضیهی
میبوس
احمقن
##moradi
عری
##التم
خطرناکی
mmad
اونجاس
##vivor
گویان
##ney
مطمعنم
۹toeternitywithexo
alikarimi
درستو
مسوولان
سنگک
نمایندهی
حاتمی
##اجات
lii
yasi
فرمودید
take
نمیوفته
##نجار
کمیاب
فرما
دوستایی
جمش
میزاشت
فکرو
talab
اعلیحضرت
مستحق
آشنای
aminf
مزخرفیه
ukraine
جغد
قراری
آزارم
لرزید
شق
##صو
چراا
##ابیل
کنجکاوی
mahii
چهر
##hammadi
bagheri
east
باورن
یخچ
یزدان
لوی
دارى
khosr
pvz
arma
sarak
درمیارم
قوچان
##پردازی
لیدی
داراییهای
یکدست
پیله
دوستپسر
زمینهها
کصخلم
پیران
سبقت
جیمی
mtah
noo
##music
##gc
##giiin
پذیرای
افتخاره
##ilda
گلای
پیجهای
##ylinson
هااااا
بگام
hid
فاب
ندیدید
خفیف
شفیعی
##شوار
aras
شونزده
ناچ
مسوول
##گارد
##anas
##ition
##تنها
ریلیز
##yani
ابرها
فشارم
##shutup
تلاشت
##آمده
مائده
##mf
عقیدتی
چالشهای
westand۴
##oo۷
جناز
ammar
سیستمهای
چهارمحال
رشادت
احداث
امبا
گشایی
میبایست
اتفاقهای
heyok
پاسارگاد
آلزایمر
heyokshutup
دوستیم
شیب
##khorshid
جومونگ
##داش
##ista
ایردراپ
کپسول
پدرشون
انحرافی
آمنه
معاینه
##شهریور
مشمول
ظلمه
pvzohre
##vo
بیع
هیاهو
دایک
sorenaofficial
بازجو
ذهنشون
##فارس
خاتمه
نخل
آیدل
مسخرهای
دوشم
ارور
آنلا
##ehe
bogh
جادههای
##ophil
##error
racism
##sto
دانیال
sound
##gool
hiv
نفرات
تنب
##emon
##۷۰۹۵۴
##آمریکا
abbasah
##olmol
gomnam
##rt
mmaadaam
ارجمند
abbasah۵۱۴
music
##۳o
abbasah۵۱۴۷۰۹۵۴
##jani
بنم
inst
چاووشی
mahya
##pel
سودا
جیبش
mell
میخی
##موتی
عزاد
فرشتگان
اویز
رقابتهای
وانی
فاری
هیاه
نویسندگان
##رید
وینی
عکساش
مقابلش
۳oh
باا
۳ohheil
##tagh
طرفش
تهیون
##atrizioo
##احب
ویلسون
paatrizioo
المن
amirars
unpop
مرگت
amiri
diamond
هە
سرکه
##حسینی
##agu
westand۴freeiran
میرقصه
##راغ
بدنسازی
sadra
باباتون
زیادتر
آمدیم
##kat
آشنایان
بانکهای
خستهای
میفرستیم
marziye
##۱۹۴
##ششششش
وست
خبردار
بچهم
سراغت
kakt
##لاوه
##aeil
یوگا
امدن
##orrow
سفری
##isa۴
کوکا
بلاکچین
fagh
بیزیم
ru
##avad
perse
پاندمی
jm
##ناع
##اکم
کاریو
۱۹۹۱
##ammousavi
هوچی
درسهای
عزیزه
##فروردین
بهانهی
قشری
##خالم
عثمان
صفهای
تلاوت
نطن
##vah
##شتو
اولو
خانومم
خوابهای
باختم
پنجاب
وکی
جرش
##چگی
پسرارو
##رمه
میخوانم
پسرهای
##۰o
بخواهی
##giv
##bae
ولیکن
##edis
mahsa۰۴۰۹
آهی
بواس
متقاعد
تربت
نهادی
مصالح
استارلینک
سفرهی
دستر
ویلیام
ننوشته
vii
##kz
درنهایت
##enam
##۲۳۰
شاپور
##beigi
dentist
سالتون
آوینی
por
دستشان
jamal
kach
##نے
##ien
##۱۳۹۸
محبوس
کندهار
nezammousavi
##صره
نمادین
pouya
بگش
اپوزسیون
بداخلاق
مستراح
متکی
کصخله
program
##آید
مضر
ندانم
##army۷
run
##its
اتهامات
##وں
خودمی
##mmm
جوار
تنهاتر
فردام
ناسزا
بروزرسانی
##۳ein
کاشی
##گردون
iri
سوختبر
نمیگو
سلبریدی
رامی
سیت
امتحانای
نمیکشی
گالریم
nyct
کجاها
##mdb
filmm
دورد
کیفم
tweet
##karii
هعیییی
شیائومی
خرب
علاقتون
##mohamadi
ghalamfarsa
زما
##صرف
بچت
amiralisimpson
کشا
sohraab
مینماید
##kos
##night
##naaser
کامنتهای
معلق
تنکس
sohraabnaaser
هفتههای
آواتارم
هلمند
شعوری
خودتونید
برکناری
وما
روحمو
پیتزای
pic
##j۱
خارش
عجیبتر
##۷۹۵۵
بفروشن
مظفری
##۱۴۶
##eif
##pride
leyl
smtownglobal
آفیس
بسکه
##rangi
mahdokht
پدرا
##۷۲۶
ریکا
##سانهای
##انسبت
کاکتوس
filmmaker
ashtari
رفرنس
لیستی
ویار
شروعش
آبیاری
shapary
تعفن
##argard
اورمیه
خانی
میفهمد
استارتاپ
##صاحب
ایدئولوژیک
سوخاری
خیلیاتون
شمارا
yasn
ناموفق
##sepehr
##shn
میبخشم
کتابه
محمدوع
کیرش
##ymph
bahaar
الذین
شنگ
##وزد
نوشیدن
غریبانه
cam
میکشین
پشتونها
کودکانه
کلبه
دگرگون
روشنفکران
##iiz
پیجای
رأس
ill
خداس
##۶۹۳
گریهی
بانیان
game
پخشش
بعدیش
##rp
##osein
آهنگو
novisa۴
دمیده
اعترافات
خوشبو
behtar
##حانی
shahla
##irezz
##اااک
tam
##۷۵۸
##ational
تراپیستم
##۷۱۲
حسب
هجرت
##ould
##mohseni
بیدلیل
روستاها
جانشان
مردمانی
تفریحات
##itv
سوپری
تشریح
hamidr
بسازند
حرومزادهای
بیکران
##elou
ببخشم
انسانه
نائب
بشتابید
##jz
##aph
تصورم
مطی
##ibi
مطالبهگری
غمن
mosi
خانمم
بهمنی
مختر
کلیسا
صدایت
professor
محشور
##andar
نبودنش
patrick
##eyt
آقاجان
yashar
آرتی
میگردند
loveshot
پارلمانی
ot۷
ارمان
فحشهای
##فران
جدال
عمره
خانهاش
heart
ریک
نگرفتیم
دیوونم
evil
hes
##covid۱۹
بازگو
مانا
qs
بودکه
یوونتوس
ناکافی
نیکاش
نبودش
##mare
##abanoo
##dehghan
##en۱
##۹۹۹۹
پلم
when
ریدین
##etun
مرگبار
چریک
##ختگی
جاماندگان
##bro
ابادان
##erb
ملای
دیوارهای
sepeh
صبحم
تالبان
جادوگر
ایشونم
نخریدن
نانی
هیبت
خاطرهها
##witter
محرومان
phoenix
مناظرات
بشون
حرارت
##عبدالله
##ئست
##iday
##۱۳۶۸
انگلیسیها
بیزحمت
بیزاریم
فالوتون
نصرت
غارتگر
دیفالت
تولیدات
blueb
کامیونی
راش
زول
عکسام
آرین
قتلهای
انضباط
نامب
کنندست
mitr
##bati
sohrab
وایسه
سبکی
yu
##py
mrt
بذا
##maleki
درای
shabahangalfa
ars
واقعااا
ذهنمون
##morgh
karbarcovid۱۹
زندگیشو
۱۲۳
##جدین
مجاهدت
namir
ممکنم
بلوچی
ضربهای
ادرکنی
##کلیف
واجبات
mahnaznour
mahnaznourid
آزادیهای
##rian
محمودی
زخمها
##parisa
##arezae
نامنظ
نفهمن
میشناسند
میف
سرزمینهای
امباپه
cow
روزى
##icd
مهرههای
سندرم
اردن
##gary
جنگلهای
تلفیق
خوبیهای
##التح
شیرو
طلاب
وکار
##کوتی
خوشک
همینکارو
مقامی
ندیدین
همجنسگرا
مایهی
##خاک
ایزد
آبروم
تصمیمگیری
##لاقه
تصدی
کذایی
kol
برینی
شدهاست
unpopular
##یرین
عمرانی
حاله
##zaad
حاد
نونی
دستمه
همسان
kha
غمگینی
ستا
sadr
۱۲۸
حسابت
بفهمد
رایگیری
##oft
ووی
بلوچها
ساقه
بگذارم
گشاده
رکن
چص
مانکن
اطلاعرسانی
sqoz
تخمش
##birthday
مرگی
پریودم
خوندید
پاپی
rang
داستای
دفعهی
کک
فارکس
کوته
فکرای
چرتی
نمیدانیم
##آقا
##۹۰۰
سیستانی
زیرم
##یداشت
##aham
albert
batel
دکان
##akbari
afg
taa
تابعیت
گلبم
net
گفتنی
پوسته
##قاضی
نوبتی
صدامو
##کتاب
میبندی
پیشرفتهای
دیسک
enc
tc
##kesh
dentistbar
قتلگاه
تیریخیدا
عاااا
غمه
صغیر
##fv
جانور
##ember
بدا
ناخوش
##۲۱۷
العباس
##yaman
التحصیل
##خانهای
##edor
##evan
بازماندگان
ghan
مصرع
##sama
میجو
##iza
توانمندی
power
##otfi
تجهیز
پروازهای
میروید
batelhagh
ow
##فسی
چهقدر
ks
اقرار
معمولیا
حصین
##۶۱۱
##zaa
دریک
کنکورم
novisa۴raisi
نخوردی
##ارتان
##آخ
##۳a
قشنگا
##khanom
##jn
جلسهای
cy
زادگاه
wild
بدنام
خیرت
majid۴۱
رفتنه
رهاش
تعدادشون
##agram
hamidreza
asadi۲۰۰۰
##zan
کیریتر
mahdii
جاو
غرامت
xer
##ooti
azade
##poy
##oghab
##vnd
##avval
##etwitt
mrjiz
وعجل
mrjizjiz
بیسار
دراگ
دولتمردان
بپوشید
مولوتوف
mck
رسا
میخوندن
خیرتون
##جهان
مفس
درستیه
somayeh
پسورد
تما
تکرارش
نمدونم
معتمد
دوستدختر
کدو
noor
کامله
اگهی
##chen
michaelhastam
الط
اینستای
##خوام
نامههای
۲۰۱۴
مقررات
lllltann
برقمون
رانندگان
##الید
شرارت
الأسد
مهشید
farzane
علاف
##callme
##وتری
##چنان
بستگان
تیمو
نشناخت
##hair
##۰r
دادههای
فحشی
##aeiz
##eric
حاجیپور
هنرستان
##hoseiny
##۲۶۵
پوفیوز
مبارزین
sleep
جلسهی
بیناموسا
هانا
shep
کمکشون
پرندهها
zoo
فروند
نیکاشاکرمی
خوندین
##malik
##درصدی
آقامون
پارو
##shahin
##۲۶۴
ریدیم
##پری
ddp
ind
اشپزی
##nazi
charkh
دیبا
مدرسهها
پابلیک
منگ
سیاس
another
واییییی
##jon
کاراشون
مبارکا
فریز
سیگارم
بپزم
elsa
mahr۰
آرومه
mahr۰o۰o
نشدین
##varid
دلالی
جلا
##ااااک
عروسیه
دیکته
علاقت
کصنمک
##akeh
##itor
درسای
میسپارم
تقط
##lazem
هرلحظه
mymazin
تخیل
mymazinlife
منده
آرایشی
##ohi
foodlazem
بپوشیم
##zen
چشاتو
مضطرب
##tdy
##ستهی
سخنران
noth
تعصبی
راهرو
##aft
##avarz
دایرکتم
خرجش
پادو
##لاند
مدح
ولای
شهرسازی
##iversary
وزیران
بهطور
##کشو
کندم
خوانندههای
تیت
بیولوژی
du
بسازد
آرمین
##yari
قدردان
آما
آلا
بالستیک
برآورد
ناکامی
must
##yus
فوبیا
زرین
سکونت
lilith
mig
rass
یانگ
اولشم
##ilot
پریشب
##saeedi
ازدواجی
مجازیه
آفس
خونها
binam
##ikurd
دونهای
کاربرای
sajede
شوگا
##خودرو
شماس
ساعتم
کوههای
پروپاگاندا
##وض
اجابت
فامیلامون
exolv
emm
بگردید
خبرتونه
پشیمانی
mahshidtavakoli
مدرنا
mtaharezae
mtaharezaeic
صبحش
پژوهشگر
پوتک
etern
helpiran
ابرآروان
##shey
رادار
اوخی
لازانیا
hedieh
nevis
شوری
امامان
##sadegh
تیرماه
مناسبه
ادرار
مفقود
بلال
میزده
میپرم
عافیت
##esf
برجامی
tj
m۰۷۱
آنست
برسانید
لیبرالها
الزاما
marya
pakistan
##wood
قراردادی
##تیت
آزمایشگاهی
##bakhti
ارسلان
احقاق
فحشه
گفتوگوی
##اتیه
داداشش
دیی
tagh
میفرستید
دژخ
##۹۶۷
برمیدارن
مادرقحبه
حضورش
بحثم
آیی
##بق
##car
خاطرهی
callmem
جداگانه
کمکتون
##jaan
فلور
هکسره
##نوع
##کرت
ویورس
پهباد
##pedram
هیول
##۱۹۱
تبلت
یادبود
توییتاش
marjan
سابسکرایب
بدوی
نصیر
میشکند
نازم
واقعیم
کوردها
خاین
هورا
واقعیتش
##ied
چیخ
کیلی
مثبته
##q۳۷
سمبل
##salar
ایرانمان
تجلیل
##aamq۳۷
##gufaf
ddpaamq۳۷
##gufafo
ddpaamq۳۷gufafo
##anal
پلیدی
secret
فرشتهها
خوشبحالت
سختیهای
mostafash
اوو
##afe
کتابم
robinsh
##lagh
شمول
لعنتتون
چروک
دارمش
آنلاک
آبشار
robinshour۱
rock
bag
شروط
کثیفتر
laleh
##تونز
##برقی
konnj
khadem
سرافراز
نمیزند
monster
es۳۱۳
##yrus
alizadeh
##jjj
##۲۰۱۶
تبع
##بلند
منظورمه
پیششون
##ofthes
##adkhod
##aref
مرید
آبش
##erfan
khanome
##نامهی
##khaste
حوله
خوشمزس
الخصوص
بچشون
پشتت
##اسفند
اصلاحطلبا
مصدومیت
دوستمو
تارگت
رغ
##متر
بدند
بلانسبت
نههههه
آلرژی
سروان
##پوز
مناجات
andr
ماما
##۹۹۱
##زدایی
بیخیالی
موسوم
pand
بگردیم
##جمو
مته
رزمی
مربوطات
دیرم
ایشونو
آحاد
tanha۱۳۵۸
konnjedd
قوز
##صهی
همخوانی
دویدم
هرجوری
عجبم
treasur
##amat
بردنش
ظرفشویی
perspoli
جلی
همانگونه
خایههای
سینک
جرررر
روحشان
mckoush
##z۴
توابع
##rajavi
nafiseh
مارکس
تجربش
نمیافته
##enger
larry
نتو
##uli
افکت
شلنگ
##sh۱۰
##ilou
صفحهای
فراموشم
کشورا
##eto
پوشید
محدودیتها
سعدى
##inikan
مامانمم
##purple
نیسی
##بارو
##iter
fly
اینجاش
پوه
روزمون
meow
۱۲۱
nos
قربونش
sahar۱۳۶۰۱
نمیبرم
yagh
بخابم
##حون
ازمن
طبس
فیلیمو
##نوی
جوادی
درآوردم
##afer
قدرشو
میطلبه
##sharif
نظارهگر
فاریاب
kkk
بابامم
تیرباران
##ىها
##zagenocide
لنگیا
جانت
جاکشی
##morad
اتلتی
##addy
ششمین
هید
آبم
zmn
آرامگاه
fatemehsab
##head
their
مستضعفان
aliirezz
انتخابش
میدادید
aliirezzaaaa
مشنگ
میور
پینگ
بشناسم
بیوفتم
ندادین
نچرال
mrl
جوابت
اقایی
میدیدن
لباست
parsam
##dead
teaser
پژم
سرسخت
##this
##بشر
##eysam
ندهیم
زابل
##bird
نیارم
ach
شرمساری
نست
متول
##صرفه
حقانیت
آویزان
##fad
سرایت
فرزندانش
سهامدار
kur
ترمین
سودای
lt
دانشگاهم
کبابی
سپهبد
عررر
##هزارت
stophazarzagenocide
نمونهی
hsetayesh
مطبوعات
hsetayeshnia
##moheb
وجهه
##kaa
##۵۵۹
نیاور
##۷۷۷۷
یاسی
تران
فا
کبد
##ughter
تگش
مقوله
##ajam
وزارتخانه
آذربایجانی
خرسندم
##نوز
##رزق
متنوع
روسای
آرشام
##emz
##ebahar
اگاهی
##samurai
هشتمین
freeiran۲۰۲۲
نیاوردن
کیریترین
بابی
رخنه
آزرده
اتفاقایی
بازدار
spot
برینن
پروفایلت
nothing
صدهزار
اوسک
برادرزاده
##ern۳
نطنز
nch
متوسل
##asadr
ستر
اهوازی
۱۳۸۲
نمه
##راجی
همسو
##astro
هواش
بایا
ho۳ein
##۸۰۰
آسونه
aliiish۱۰
پاز
bahramg
خاه
##azade
dal
زرگ
تبعات
اهرم
دیوثا
##saghafy
mokhtarsaghafy
##eze
ناقابل
##کنین
رنگار
##ebrahimi۱
رهام
tohidazizi
آگ
شیومین
##۶۷۹
دونفره
ومردم
banoye
تختی
##schach
##اسبت
rbw
##law
دستپخت
ناامیدم
۱ebrahimi۱
حمایتش
mish
سیره
توییتریا
ماندم
سلیقهی
##خصی
پایانش
monir
شفاخانه
نوا
##run
##نگاری
##efer
آیلتس
##۶۱۸
alid
inv
##ooday
vas
زمینهی
تکلی
##یندا
##اسبی
##adise
فمینیسم
۴۵۰
حرصم
نشونت
پدرو
##کککککککک
بازارکار
ازطریق
الزام
فلانه
پسندیدم
noosh
elli
سیروس
##۲۰۰۶
##etweet
ممان
همسفر
هرزگی
gand
بکه
بیکف
عضله
##tian
نمیمیری
##oin
دمشق
نابی
انتر
alisafari
holly
تخمیترین
maf
کوهنوردی
fif
نظافت
parvaz
میآیی
میجنگند
جایگزینی
##uty
ourpride
##لیمو
##فیان
طالقانی
آوردهاند
میلیاردر
ازآن
alinikan
میوفتن
آموخته
alinikanmehr
##ebr
##maryamrajavi
جردن
سادی
کوپ
گروهای
##asttt
تمرینات
پسا
##میاد
بپذیرید
هشتگی
نمیخوابم
ویدیوها
غاز
مخار
##دلار
عفونی
zane
##ابیم
##لومی
باغی
همخونه
##abas
##ofar
mojahed
##rou
##۲۹۸
میخانه
میزاشتم
مبدا
اونورتر
هواپیماهای
گیا
دژخیمان
جهانم
بیندی
##chin
نتیج
ذی
شهیدم
محکمه
آبدار
msd
soul
حائ
##۱۰۳
مدرسی
اقلام
allah
دهلوی
exolvoting
اینطوره
##ollet
مصلح
ذهنمه
das
وث
mammm
فرانک
هنرمندی
توانی
حججی
##نامهای
فرط
چهلمین
لد
##پش
##vh
##ox۰۰۰
##۹۰۹
##۰۹۳
تقریب
ans
متحمل
فواید
بئ
ادویه
noxn
اسام
##ubby
نذارم
noxnox۰۰۰
##۳۵۳
##ظام
شکارچی
##۳۰۴
نگفتیم
خدشه
آوردین
کسخلم
روانکا
kalam
خلافش
##فیری
انتظارم
میلیچ
میشینیم
پاهاش
مادام
یزیدی
marhoom
##olar
۱۳۶۹
کثافتکاری
merlin
شنیدنش
میگند
##outs
ملال
##تیون
##شتین
##۰۰s
شرفتون
رخداد
##جینال
##jal۱
today
##۰۲۰
##asal
حکومتها
##iima
بلکل
ملکوتی
همسرت
فاع
پینم
bahari
زاپ
##لینگ
خدام
##iloo
شهرا
دردو
مکافات
##aqi
##بیلی
pian
چقدم
وهمه
raa
kachal
##ego
kamyar
listening
خداداد
آنت
قذ
##shod
##rew
##۹۸۹۷
هیچکسم
چمپی
سلیقهای
مطیعی
تمامه
ریزون
باشعور
حسینم
قحبه
میشورم
گینه
یازی
##omidam
دوستانش
پائین
شویی
سخیف
جلوشو
برب
##ince
##ikhan
کلاف
پستای
msf
play
ابالفضل
mamadreza۸۴
افکارم
همونجور
##۶۰۸
فراهانی
nakh
دردیه
اشکآور
##fb
تبسم
پرینت
نخوای
##۶۷۸
دروس
پرنسس
دگه
گیلکی
decjal۱
دوستهای
حوصلگی
##فرض
ویپیان
##avand
##iha
##rj
پسرامون
حقوقش
##evis
luhan
##oos۱۹
آوریل
شہ
پسرخاله
امشبو
zib
کردمو
گربهای
homa
فرشید
alon
lor
سرج
بیمزه
ut
عینکی
معنیه
salamaco
ابجی
هراسی
ferfer
##gl۱۳
##massacre
##ahiid
amirmed
گشوده
treasuremem
vita
##xp
nasr
بخشنده
قدیمیا
bon
بھی
دماغش
mati
نمیکشن
##اسازی
فالوئ
##paul
viiollet
دهنمون
itsmy
km
alone
قشنگش
ios
بته
استین
عصا
amirmedusa
زمون
beanst
beanstalk
وجن
قاطعیت
حساسم
بیچارهها
##تشون
تابه
دادهایم
bitch
##ebar
پرهام
##mort
پشتو
##mahshid
وایبی
برقو
پولها
ملخ
saeedeh
بپرم
##atic
رسوندم
مبارکتون
آخوندای
##ostafa
نامنظور
sis
bahramgour
برگردونه
اثرگ
جنای
اتحادی
موقعیتهای
left
رذل
همونطوری
۱۳۹۸
اخباری
mtvlaf
##ereh
مقتدی
qazale
##وخی
واقعیش
برزخ
dl
قبلیه
ودی
نورد
##bala
##tash
آجی
##قش
hh
##ومان
نبردن
عناب
lawyer
درجهای
طبقات
abdor
ناجوانمردانه
hob
gha
واضحتر
داروسازی
نمیگین
shhr
گیرش
هرکجا
خارکصه
cut
زغال
raefipour۱
عارض
##back
shakiba
watch
واص
مبتذل
براین
saemoh
تکنیکال
غیرض
کمیل
غرض
شرفها
hemmati۷۲
h۴
زنک
##friend
##۱۳۱۱
##heydari
فرعون
پروان
مهاجرانی
پهپادی
خیلیاشون
پرندگان
##ھا
bsc
بیتا
treasuremembers
بیتیاس
##قبل
میایست
##حام
مصرفی
کونشو
زنازاده
##نیم
خیارش
مربع
پیدام
دزده
چقده
elii
##shahii
##farhani
عرفانی
پختن
##abol
گذروندن
ardeshir۰۰۳
پونه
ترکه
دلاوران
##fal
##ugyeom
ourpridek
##azim
لپاره
##yoongi۷
##yearswith
pastisp
pastispasttt
##ونس
پناهندگان
fh
فروری
کرمانشاهی
##yungsooday
پشمک
callmen
سرآغاز
##elat
amine
بیراهه
مفیده
برندهای
آث
خیلیییییی
ziba
##alin
گلول
خطرناکترین
دستاو
##rajabii
الگ
میندازیم
قواعد
cle
stopexecution
khaj
##یرانی
بیانگر
##۶۱۶
mohn
##ینیا
پوشی
samanfarhani
happybookseller
تابستونی
بهجت
کلین
iik
##کراسی
##نهام
۴lirez
حقوقم
توهمی
ourpridekyungsooday
##sajjad
طغی
رسیدهاند
میگام
عبدالعظیم
بلوک
mintyoongi۷
تونستید
دوحه
لباسم
الغ
لعل
jaz
جادهای
prol
ویرایش
مستعمره
نوآوری
##shahed
میخوابیم
تصاحب
hzn
شبهه
نکشیدم
ووک
خرن
۴lirezas
##روج
تاثیرش
۹۶۵
ازک
##kht
mana
##بتا
پدرام
##خورشید
shiva
##safa
ورشکسته
soorati
homayoun
oomidam
samrajabii
##اندر
عرعر
بهنوش
amirl
بسنده
mehran۹۸۹۷
##۲۰۱۱
##eshun
خروار
سروصدا
اولان
اسبق
مغان
##پنج
##ates
موجوداتی
بزرگوارید
فجیع
کاملی
faq
وبرای
##وژ
##ofthe
مکث
favorito
بیشه
حساسی
نبوی
ببازه
بخوابین
reb
۳۶۵
شیون
اکوسی
تلقین
۲۰۷
انزجار
mammmmadd
وره
khoda
سمند
اینهایی
شدنشون
رقابتی
موهاتون
##arab
##۱۳۱
میجنگه
پویش
##banoooooo
##mogh
##rorschach
paeiz
نشک
ronakbanoooooo
نوتیفیکیشن
ژاوی
فرورد
لرزش
shervin
هوان
marv
هفتادی
##۷۴۳
hzn۲۹
جلویی
##awzllll
lllltannawzllll
فیلان
اموزشی
پنجرهها
ایستادهاند
yekrorschach
جناحی
igot
err
ایزی
پگاه
راضیه
لوگوی
رضوانی
خیاطی
##۵۸۵۸
##بودم
یمانی
mahroo
نکشم
بمونین
##انتی
داشتنیه
##liam
##التحصی
همنشین
istandwithmaryamrajavi
زرده
الکا
چهارچوب
ساختاری
تندیس
یکتا
مرغی
faraz
اونقدرا
مقیاس
کژ
golsh
##خوشی
##ezar
##namite
weird
خییلی
##لبیت
majh
##ynwa
دخترامون
بهترن
##alian
گزین
اتباع
benyam
boghze
jamshid
##kha
##kl
snapp
##کاست
دهاتی
۴۴۸
عکسمو
##ty۴۷
##atrty۴۷
مقطعی
##cuatrty۴۷
kkkcuatrty۴۷
kkkcuatrty۴۷icd
توجیح
##۱۳۷۶
گستاخ
kiy
##o۴
یکروز
سوهان
طیب
بالینی
##ریر
اینن
مخلصم
اومیکرون
بسیجیهای
انگیزترین
##جمعی
گرامیداشت
تسهیلات
مینسوک
##اهات
سربه
miladgl۱۳
خیلیامون
پیامرسان
##ahkh
آنجایی
کسن
##orge
##bey
##جمعه
تخممرغ
عرررر
چاش
پرود
محفوظ
zm
خیاط
پران
##acional
درفت
خوابیدی
##avote
کتگوری
##۳۳۷
رهبرانقلاب
rahimi۷۷
گیتس
متخلف
شفاهی
##zabeth
##واک
چکمه
##خخخ
خاورمیانهای
##yo
امریکاییها
تایلند
بسن
کفتارها
mamavote
فرایدی
زحمتکش
میسوزم
صدو
دریاد
بکر
بیاع
حلاله
##zayn
amd
armm
درهر
mostafam
قبلیش
##pal
down
sedighi
بنزما
##yst
تاریکه
معیوب
##azemiinik
iikazemiinik
prolter
##۱۴۵
mmdgar
##نک
alirezaa
کالبد
ثار
##چینی
زمینههای
parastesham
##فارسی
جنتلمن
arya
وهابی
قصدم
کمونیسم
eu
اونچه
coc
اغاز
چانگبین
هنگامه
زلال
hog
رویار
نتونستی
کونتو
ata
الحال
charl
ہم
ازی
abdolm
انزوا
نوبه
parsal
رعب
##کردنی
##basi
##omee
سردرگمی
فروم
فندومی
##shams
mmdgarneshin
قبلن
پشتکار
مشترکی
##ahs
##۳۳۱
بیحجاب
جقی
سشوار
شرافتمندانه
biiit
واف
##rie
##obar
نیوفتاده
rbxsamurai
ریختیم
##ologist
##پراکنی
##erc
بهترینه
معلمها
متخصصین
پروفایلش
##کانی
پسرب
مشاع
صورتشون
kimiya
##love
tajzade
الکلی
roza
صداتو
نندازید
internacional
##قرآن
کامیاران
یاسمن
##nadia
##mu
کصکشی
اللٰھم
متقاضی
کنارمون
جوونامون
##kt
##سیسه
ساچم
redboy
los
حسه
ملیکا
گلمحمدی
مزمن
کپک
##oosti
نفرستید
jed
هایه
آغوشت
##qy
الته
قبرت
##jd
آنالیز
ریسی
استغفرالله
##تاژ
بهینه
سوپرمارکت
##گیزه
##ادست
درنگ
##oly
فرصتهای
ساشا
فوران
imp
دریم
فیلتره
##karshahed
لازمم
chamrosh
charkhkarshahed
رنسانس
##noor
##ەم
rezan
##rh
##imas
آشغالا
جانیان
chamrosh۹۹۹
پرین
کتمان
فیلمنامه
شکوفایی
وخت
۴۰۱
شخصیم
اینفلوئن
هره
میخوایید
نگذاشت
rii
##aken
موفقیتهای
برنمیگرده
لندی
maryamm
بچرخه
نوتیص
##naseri
میلانی
جولی
شمارهی
بتمرگ
١١
ترسناکترین
##۶۶۶۶
شایستگی
پوستش
رجز
joojoos۱۹
cb
##یمیز
غیرمستقیم
##pen
هیهات
آرزوهات
واژن
gogoj
alizi
##omes
##may
استادای
##۲۵۳
##sssss
jenab
وبعد
##pouri
##همند
علاقهام
##ئز
##۰۴۱
عظما
sayed
##xy
برگی
بوجور
شاگردان
بگذرم
noora
هوو
##ayou
رونوشت
هالوو
احد
سایل
آنبلاک
ونکو
بقران
ممانعت
##i۷
صدرا
متوس
##raha
##اغا
پیشواز
لخته
چاپلوسی
##ooneh
فازی
##khar
##فونی
خرابشده
تتوی
naazanin
زلی
بهونهای
حوزهی
##khali
فاجعهای
lus
جمجمه
وور
نخاله
##esn
استادمون
tran
روشه
مزای
هشیار
##year
١۴
اونیم
##girls
rost
bluer
##oday۲۰۲۱
mhrezaa
هلندی
سعیدی
توصیههای
صلیب
ویرانگر
آرایشگر
زاگرس
خودکف
یغما
immam
هایپ
##بریم
alish
alien
abass
آشناها
۳chicachika
اشخاصی
cyrus
##daaa
مامانی
اصلاحطلبها
digikal
اصولگراها
فشل
bhr
shoon
اینستامو
۷۸mdb
##ئال
##وتن
##uj
روو
جندهی
ایرونی
##eha
وایسم
##atiiid
biiitatiiid
##میزی
##aminifard
تبعیت
احساسم
اسراییلی
##۷۸۶
وبین
دیابت
ذرت
ضجه
تانکر
آمدنت
هویتی
##پلو
عشقو
سرنگونه
شاشید
فقره
کارى
iran۲
prnian
##goz
##۱۳۷۰
پرتگاه
##jaw
بتو
##عمه
میریزند
راهنماییم
بزرگراه
جامی
hoseini
lif
##طهی
engine
متوسلیان
##زنم
فامیلمون
##mahi
آموزی
زعفران
بازمانده
کربلاست
##zhva
pezhzhva
famo
##imam
ونوئته
##بتو
##منط
تنهاترین
متحول
##esteghl
هعیی
علاقهمند
shomali
##رفتر
simin
ob
جسور
هفتمین
##jalili
تاکی
نمیشناخت
شگفتی
ariam
۱۹۹۵
جنگیم
ساختید
ماندگاری
۹۶۵tdy
دریاست
##khatoon
مصادف
قیر
##دمت
پشتشه
حسابهای
بورسی
عضلات
دندونپزشکی
مسوو
teleg
زینت
مشی
میگفته
##چیل
دیگریست
اکثرشون
نمونش
لابه
##alis
mrb
##iiiiiiii
قدیمیم
میاوردم
باکره
سکینه
باطری
کړی
جونمون
۱۳۸۳
mhrezaa۲c
کالاف
آبیه
##۰b
##ینیوم
زیام
##eyhan
بیسکوییت
عمت
ana
boo
حوا
oned
marvell
sarix
marvellous
##fil
##۲۳۴
شاهدان
قراردادهای
mahdavi
صداوسیم
میخواییم
##samani
پایتون
##ادرت
بخوانند
بفروش
##نتیجه
yousef
##۱۸۲
میکشیدن
سرگ
theamir
مشغله
نتوانسته
##جدید
##meli
##۴v
کاهو
dell
طویل
theblues
##شنی
رفیقش
sinas
مواقعی
میترسد
کسخلن
عسلی
haran
رسونده
##hk
پروری
##بیز
خوبهها
##face
vin
saminifard
ظاهرش
##only
آهنگش
نمونهاش
saminifard۱۹۸۶
لشک
##enouri
اکست
برسونیم
rezas
میگرفتند
shivash
خایهمالی
سرمان
##ethe
بوگ
مولایی
kianshz
kianshz۱۸
##aster
##ajh
فقی
برعلیه
##saedy
mrg
آبمیوه
قیصر
kayvansaedy
کلاسها
خندون
##ourosh
گوشام
awmir
##imany
خخخخ
programmer
##fox
فالوورام
بدار
##apour
پہ
dyoday۲۰۲۱
حفظه
ریختند
##izz
p۴r۳۴
تعجیل
زدنت
لعنتت
وسلم
شکمش
سخره
فحاش
خواستهی
پهنا
پلوسی
##جلس
پیمانکار
نمیفهمیدم
سوسکی
خاطراتی
بشنون
محسنی
سرشان
ارازل
پیامبران
اعصابمو
parsap
##ball
سرعتی
##ider
##طین
غریبهها
مینهو
##احمد
aliasghar
باقلوا
قیز
##روغ
فارغالتحصی
بخندید
پرفکت
میداری
اا
##لى
##ومند
کرات
گفتههای
##۲۱۶۹
venom
پانت
شدو
جهنمه
آفریقایی
هرکدام
calm
hsn
heydar
morteza۷
افکنی
crissto
##آدم
##rav
خودفرو
##saam
محتاجیم
##omo
رنگارنگ
gon
##جونم
وتر
##خد
##ضض
نبودین
##۷۹۰
شعرهای
##تیر
ورنه
##ikook
nap
تمرک
پزشکا
##۱۳۴
##۱۴۴
##leader
ترسناکی
انتشارات
هوادارا
الشی
بوسیدم
نعمته
همشم
بفرمائید
##ظری
بهاران
##سمت
##ghy
##ramezani
pledis
هزاربار
رزی
shaq
مزارش
##۱h
جمعآوری
کشمش
heshmat
غیرضروری
وآن
##kind
ازهم
##esmaeili
گمراهی
شخصیتش
jalal
الویه
ماک
هزارو
برقصم
majnon
##zv
##net
کردنتون
##lip
روحالله
گاری
پیشبرد
ظرفیتهای
aarmy
تخمین
دیشبم
هموف
دستامو
لحاف
iranw
کانکت
l۰ouw
محتویات
happybirthday
anahitam
لوت
واژههای
mq
کرملین
##rac
مامورین
##ولتی
##yles۲۸
تغییرش
shahbaz
##کاه
بودمش
بینیم
ims
بانمک
##بده
هئ
نگارش
amirhos
دریغا
rhe
فوتسال
عقلش
اتوماتیک
kami
شدهاید
##کارد
هیاهوی
وند
بنبست
رگهای
mamadanof
immamssen
##kr
ببنید
بستهاند
وفق
##خیاب
۰۰۷
##ولید
بگری
کرمانی
لیاقتش
##خاذ
##یدهاند
##ساوی
تلختر
zolf
همرنگ
bokonim۱
اشیا
اعض
جوجو
عصمت
dragon
soorati۹۷
bgh
##ترینها
رضوان
ژورنال
مرجان
اسمتون
yasamin
rasool
golden
مهربونتر
مناق
کریمه
##iiam
مسولیت
مفعول
آتنا
سگش
نرسیدیم
shahrzd
رختخواب
خوشبحالتون
دلیلشو
امتحانام
کجایین
الساجدین
گریزی
پرخاش
##tasvir
##اسک
##ammad
انداختید
##oham
عجیبن
sib
dex
kii
آفساید
شوما
میخوابید
##میشن
میریختم
مینام
rozh
##سازان
##rodinger
ucan
##منم
اظهارن
اکلیل
aryan
وجودشون
۱۳۹۹narges
خودنمایی
دعواشون
رفتارشون
##bol
درسال
hajahmad
درمانش
shahrzdshahi
imn
نخواسته
آلترناتیو
freeman
##ause
##آهن
شرجی
رهی
وضعیتم
##ece
maary
##asy
islamic
juli
##سائل
ولادیم
منازل
##tabar
اصلیم
##stan
گوشیتون
اعدامش
شیوهی
##دالت
نخونم
تیشه
شستشوی
##dor
شناور
متحجر
monzavi
نمیرسیم
گیرند
انداختین
مناسبات
نخواستن
deadman
تیزه
زیپ
نامرئی
فحشم
جامجهانی
masi
سایبریه
winter
ejei
بازرگان
damn
##ونها
##کتار
##کسن
##ek۱
اکو
بالاتری
اکوسیستم
wa
چنج
##ینگه
تهرانپارس
غصهی
##۷۴۷
نگاهشون
telegram
iz
پولمو
##کشته
##schrodinger
میخوندیم
معض
فروهر
غیاب
بگذرونه
راغ
##iniban
طبعا
اسنپی
##vt
coming
##zanjani
ملودی
##eshon
بتن
##۱۰۸
callmeh
صمیمانه
هوشم
thee
##سرم
آزمایشی
فاحش
saye
خردمند
همشونم
amu
بیربط
callmeloud
kat
شهرتون
##اوات
استوریش
nniniban
کوئی
iranianlivesmatter
بردارند
##دونی
مسخرس
araz
##women
پروانهای
younes
سیگارو
##ارست
فنلاند
##iraan
##الحسن
درپی
##ashna
تکلیفش
fad
اووووو
عفاف
شکنان
اسطور
گوره
##diii
##aa۷
واچ
کارواش
صبحگاهی
فریادهای
میرقصم
##enourizad
##کانس
جیجی
رئیسعلی
##۸۰۸
واکنشهای
۰۰jean
##hashe
۰۰jeanpaul
##eevz
۱۲۰۰
کامنتای
پیشمون
بخوابن
darkdream
soorennn
کامیونیتی
nch۱۶
رقت
محلمون
نجاتش
آزاردهنده
gre
منهای
گروپ
bill
صادقیه
##o۰o۰
ضرغامی
نوتلا
خزعلی
پیچیدگی
مکالمات
ساچمهای
shivasheevz
jok
##ادگان
نفرشون
تیمت
واخ
##تیا
اواسط
##str
نذاشتی
##kav
برشما
پیجی
کوبید
رساندند
توخالی
amiirine
##erson
ورشکست
درصدش
##kkk
سیفون
##لسل
zd
درازه
اولور
کسبو
گوشیهای
ftmemz
قبرش
فروشگاههای
##صلاحیت
##mc
دستورالعمل
واژهای
سراج
لمپن
فز
سوزوندن
persepolis
اتخاذ
##eshavarz
زمانهای
یاسم
خانومها
بیزنس
خوف
بعلاوه
بلینکن
##۷۶۲
born
sgh
کمش
نشانهای
چاشنی
##ual
ویسکی
تهرانیا
خستگیم
##abdi
خواهشم
قلبه
##چهار
##۱st
##تمندی
گیسو
brad
خوست
##pahlav
اسحاق
##etter
میتینگ
helprefugees
savenourizad
دریادلان
شرب
بانیش
مبدل
canyaman
jalilmoheb
jalilmohebby
تیال
##jafari
خوبو
##mahsa
مدرکی
##۶۳۰
ملم
##nav
بیخبری
زدنی
##ontazer
مأمور
##شمار
دلچسب
فروید
اروپای
۱۹۹۰
maybe
l۱۴۸۵
کوز
نداشتین
بیانی
رودرو
ننوشتم
روبر
پسندیده
۵تا
کنارتون
مانگا
goriz
غیرنظامی
اذعان
بفهمونم
ps۵
اتون
اکانتتون
##ahmoody
oct
ادمارو
کاله
##nt
دختربچه
##anian
دلخوری
استه
دزدها
شمرده
زنگنه
سوییچ
پاکه
میثاقی
##ando
فسق
حسابر
نامحبوب
##gom
کافهها
##got۷
##ئمه
گرگها
##۶۰۵
ننتون
skz
##entl
بدترش
بپذیرم
مومنانه
قذافی
beli
##ethon
نیامدی
##ofthesummer
متاثر
fafa
اسیا
تزی
##ردگی
##ابند
شورشگر
قعر
کلاسمون
##۳p
ماشینت
۱۵۰۰tasvir
نسی
وبلاگ
تهاج
قادری
زمینم
رنگهای
گرف
سازان
مبلغی
##ept
saq
١٨
بزنگاه
افط
##ossein
پرچمت
شاخههای
internet
##امیر
انبیا
##ones
حمایتهای
salomes
اتلتیکو
عایا
artistofthesummer
ولادیمیر
قرارم
ادعاهای
davoud
تحملم
خوشگذر
salomeseyed
yellow
۲۰۳۰
##agar
ممنونیم
manam
##enders
شادمانی
salomeseyednia
bkh
نوئته
##وثی
بیسابقه
شیما
##باکس
نبوت
کنندهها
گشتی
##oder
ghaza
jann
بچههایی
بوجی
نمیدونستن
استغفار
##۴۶۶
بردهاند
دایکندی
felfel
##فصل
##mandoosti
میکوبه
هولو
نمیا
pezhmandoosti
##cas
آخور
نخون
منتقدان
##البته
number
صافت
##edin
مخفف
##angool
شدیدترین
عدو
##جند
##hewh
مانه
رهن
پریشانی
متولدین
رویارویی
var
##نع
##رهم
tina
##چکر
درصورت
##eh۱
لذتهای
زانوی
جدتون
تنیس
##ghazaleh
سرعتش
##لوس
##ofski
zeynab۲۲۴
bik
##۲t
حرفاست
شونم
مکنه
پکتی
##یدهام
راجعون
talaee
jas
کلیشهای
مطبوعاتی
رانده
کرجی
khajeh
دوبی
##التش
بگیران
کوهستان
قائلم
mimpedram
##javadi
کشتهشدگان
sheikhnaj
کاسی
سرلش
مررسی
بدشانسی
حسهای
##ophe
کشتین
گزارشات
deep
jour
ترقوه
وجودمو
مالیدن
زیره
شکدم
نمیرسی
venusiii۲۰
میترا
شستشو
میتونند
تالاب
##ویە
rst
abas
##درد
farsari
dehati۴۰۴
farsarih
##ley
خاکبر
وضعش
استیشن
کصخلن
۱⃣
آدمیه
میهنم
##iranian
farshid
پولا
شیپر
تیکههای
تریم
صدسال
##۳۰b
taara
رنگها
##ثیه
goodarzi
##۳۴۲۴
صمیمیترین
گوربه
##rland
##hasani
hatef
قریشی
phantom
##wd
نگهبانی
afsh
چهاردهم
spotify
آهنگاش
آتشین
ناصرالدین
ددلاین
فغان
بیانش
بازى
درصده
آرومتر
taaraanta
طوره
راهحل
ترکیده
##لیز
shaf
##۱۵۳
faat
احاط
آمر
##sos
موکب
بارکت
بوز
##dav
آدمم
انسانهایی
nac
##امر
درگیرم
دستاشو
thepr
##xiii
##agas
##hmn
نطق
بعلت
امتیازی
آخرای
##ollow
rish
افسانهای
##rira
##۳۲۱
##fini
نازن
خیالتون
تیتراژ
pazouki
det
شهد
##وهان
offcl
##صوابی
جوووون
چشماتون
باختند
##aagh
lusifer
لطمه
toos
##داست
اکراینی
##stay
درخشش
##عهدی
مشتریان
well
صفی
صوفی
##غنی
##ouis
۱۹۷۵
mehrshad
تقطیع
##ابود
دلاره
اینترنتم
برچی
##adim
دبیرستانم
اطرافش
##john
ایستادند
goolir
دردناکترین
aliziyak
vaf
خاموشه
mostafashz۴
فوک
##گای
منسو
دعایی
دولو
انحصاری
امض
##ندری
برعهده
معلو
لبش
##gam
نیرویی
خیابونهای
مونیخ
ذوالفق
توئیتی
نایاب
نامردیه
##gholi
عزیزای
واگر
setayesh
hsarem
hsaremii
##شمن
هیچکدومشون
باوری
دشمنه
##iram
ازینجا
نامحدود
##borz
آیدین
hngame
##hayati
hum
##ینسون
کارشان
nasima
انان
سرگذشت
##atar
##اندان
کرانه
mmm
فشن
٢٤
itsh
freeirantel
هندسه
حقوقد
بهدست
کهیر
سریعترین
نمیشدن
meiit
قومیتی
meiitii۱
پرسه
آندر
مخلوق
خوبتر
کراوات
میشنیدم
شاعران
پستش
انتقادات
شیت
استصوابی
shum
لیریک
خطه
نجنگ
انداختیم
آکو
برگردون
##pb
بدح
داگ
mahbod
سوختم
##نتون
جدیدن
برگذار
small
##اندهی
mikasa
##calan
الکتری
ارزشمنده
غیرممکن
لچک
##oya
قرآنی
##cha
افسران
عاقلی
##۱۹۹۸a
نمیشویم
freeirantelethon
حید
##fakh
##فتو
چیزم
شلخته
توریست
۴۰۰۰
۱۴۸۵
ارک
##allii
##۲۸۰
منشنی
mani۱۹۹۸a
armaiss
زنجانی
شادمان
دندونام
قصههای
وخود
##فتین
دیوس
##فیلد
معلومات
جرمه
##berry
amirarscalan
کوتوله
eve
##ههاشون
سمتت
بایسم
آواربرداری
۲سال
savep
vatan
الاسد
##efr
واقعاااا
اجل
فصیحی
nom
##وکی
pooya
مخارج
سیده
##وها
##des
مارشال
##bertf
bayatzanjani
##جة
امنه
کانادایی
##۲۲۷۶۰
##bani
کوید
شمخانی
انگشتم
عبر
اموات
دخترتون
تکو
##alivand
saman۱۵
ونکوور
داب
ذغال
میزی
مدیتیشن
##خودا
##۷۳۸۷۷
بیگی
نمیرفتم
##ftme
##۵۲۸۲۲۷۶۰
deadman۵۲۸۲۲۷۶۰
##ادیر
فیلترش
اربابان
##ister
دشواری
r۲۲۳
خوشایند
جانهای
##۲۱۶۹۳۹
saman۱۵۲۱۶۹۳۹
r۲۲۳۷۳۸۷۷
ساختمانی
دیرین
خالصانه
بیتربیت
hasht
shang
حده
شاهرخ
imschrodinger
میخوایی
گذاشتهاند
نحوهی
##asadii
talaye
درختا
named
seemorgh
خرچنگ
parsapya
زورشون
هرطور
زکات
##توا
شبو
dard
##uhollah
مهدکودک
lad
فاکین
lik
اولشه
فوتوشاپ
اطرافیانش
##nak
##۶۰۰
برپایی
##هاز
imschrodinger۱
قباد
مادرای
بیمارستانهای
##ending
sadat۱۰۱۲
ماکارانی
##abibi
جب
تعزیه
تریلر
saturn
alishah
##oves
الآنم
ڪه
بیداریم
پایینترین
##وووود
هنرهای
دربیاری
##شهد
##etal
وظیف
##گرید
##azam
کینهای
عراقیها
میفرستادم
parvin
long
##pos
itali
##f۱
##imiri
میفروشند
offclastro
سختگیر
متخصصان
ربا
متاور
انتقالات
اهای
##۸۷۸
امدم
کیانی
عرزشیهای
نابرابری
##تز
##ینیه
محنت
کوچمون
drsaeed
##kinz۱
##شمام
جیبت
حجاریان
کیفیتش
استیو
هشتادیها
##گوز
کشیدید
shy
silv
##aphantom
داوطلبانه
نمیذاریم
gn
kohn
دستاتو
عربا
سیمکارت
##اضات
فحشش
اللھم
##ohe
##kaw
##اندید
##artan
نریز
dian
الویت
چهرهای
##ani۶۶۶
ferani۶۶۶
##keh
کاران
##شدیم
تشنهی
کشورشان
khab
ریجکت
پاتون
عکساشو
شهادتیم
بدتری
یااب
تحر
گذشتیم
اصطلاحات
##ronaghi
قربونی
صباح
بالی
شاعری
تیمارستان
کثیر
صحبتها
درونش
میآم
haydar
fereeon
hash
##zai
هراز
نمادهای
moper
moperaphantom
ماشاءالله
کبک
خونهمون
راحل
colonel
طغیان
مهمن
پیف
any
##ld
حکام
##armagas
صمد
تلاشش
سیراب
چیکاره
##۹۹۲۲
خانوار
##pv
خیطه
zir
##خصیت
two
نرمه
صخره
آنانی
##jalal
چشما
##shadow
مبادله
##۱۴۹
##وچ
۱۴۴۴
پاشیم
##۶۸۷
نفسش
فتا
##pashm
##mun
norbertf
تمیزی
norbertf۷۹
کوبنده
لپتاپم
خودکفایی
خودشیفته
سوختبران
malekshariati
بهنظرم
میمانم
##یید
##noo
##choas
##yyh
mohammadi
ریچارد
سچ
کرام
تهاجمی
دشنام
نسوز
mhdavi
مایکروسافت
##shahid
سوسن
چشمانداز
##انسانی
under
##۷۷۸
infini
##ardis
بلع
ویکت
##ingo
nadi
داستانه
میریزید
اذربایجان
tot
میسوخت
انرژیم
anka
فیلترنت
sing
فستی
پرسیدی
گذاشتمش
قاطعانه
ربیعی
شنی
مذکر
zahragh
نانسی
زوار
##mousavi
بیتالم
رائفیپور
لاب
rahim
میومدی
مدرسمون
##freedom
##ساس
خرابم
موهبت
group
دایرهی
##ظار
##ریمن
##ilan
خاکست
زیرساختهای
الفت
##aliz
jahangiri
##shth
خوشحالتر
عنقلابی
##saad
ناموصا
رہے
##وودی
##uo
گلات
بشردو
نوراللهی
##media
##itron
برگهای
تیمها
white
##zeinab
وقتمو
نوشتید
riz
برونگرا
##onic
ارقام
بلارو
غرش
##unrise
men
علیست
دربیارن
##۷۷۱
پروند
آرامی
##blume
مضحکه
پوشاک
وینستون
##olmolok
الانش
##ssi
طعمه
اوصاف
چندنفر
بجنورد
nika
##jenni
##usiv
parsi
دقیقهی
luciferevan
خارد
شکمو
داستانها
اعدامی
moeen
نامید
خورا
sarakaaf
tok
غاصب
##toc
درآن
وژ
##باتی
دبل
##ather
##azel
یونسی
جدن
##eev
علل
khandan
korosh
آمدهایم
قبلیا
##alim
##urk
##erse
port
شوکر
ou
##arad
paradox
kr
nej
شکننده
خداحفظ
شاشیدن
##عبداللهیان
##tahi
سرانه
میشستم
##ofm
برادرت
rahbar
gar
خوشحالت
انسجام
##۳n
حساسه
چندساله
کوهها
آگوست
##۸۲۸
##۱۸۸۱
توماس
چخه
گراند
##arbon
پایهی
پماد
##gal
مقبره
اوناییکه
eagle
baa
##یین
نمیشناسمش
sang
##roc
##pic
sepah
عوضیا
بادکنکی
hjchoas
الحرمین
فعلن
مزایا
لاتین
rsh۷
درومده
##diya
##رسمی
آسمانها
ajorl
منقل
لیسا
##albatr
لینکش
مشاهد
##ایییی
spec
##afredd
##zr
ستارهای
جسمم
میفروخت
od
نمیی
##teim
sbt
لختی
##جناب
نمیزنند
مقدماتی
##jiali
میچرخم
##new
##ژژ
zahraw
army۷
میدارند
کوص
وسای
خربزه
ریاکار
##خواران
حاظر
تورکیه
ارگاسم
##ههات
آلفا
haniyeh
spring۸۳
قندی
ریاحی
نعنا
##لرین
الشهدا
##am۲۰۲۱
میشند
غریبان
nariman
##میس
imsh
کاملش
##aavard
نامزدها
kohnaavard
امیرعبداللهیان
mazi
##وشد
##atoo
میفرستین
adib
##rash
##اللهعلی
blind
گاند
سوالو
بدبختتر
negiin
##فایده
sohe
eshaq
اشنویە
احوالات
mrdaw
hayat
ماهر
اشتری
پشمی
dariush
خاطراتم
نمیشناسد
##سبزی
میاندازند
صدیقی
ala
chelse
##گذشته
کلاسه
##ector
##ae۳
هتک
mhk
##سالم
akramam۲۰۲۱
زبونش
مسلک
albal
bambam۱a
##الیف
عزیزممم
##stri
۱۳۳
##ayetwitt
پاشیدن
farzan
hu
دې
عینه
خودیها
shumayetwitt
##saba
ببندین
چمپیونز
مرسییییی
chav
سرتی
کارگزاران
اسپم
دگوری
pant
استخبارات
لطفت
alt
##حقی
خطاست
خریدارم
عمرمو
sand
همدل
تاکسیک
دمه
##ari۱
mahdim
هالند
bom
تووو
نمیباشد
زحمتی
parsalusiv
parsalusivee
اینهم
پولداری
سرویسه
yasmin
عرصههای
التیام
بوقت
رسیدید
کثافتها
استرسم
hod
پدرسوخته
نتونیم
عتی
پرورده
پریز
تحقیقاتی
دیجیت
جانبازان
##y۰
دوستداران
shrew
حلقهها
##ولانزا
mahta
##heidari
##arik
کتایون
اینطورین
دولتش
drk
نمازی
started
عازم
##bahman
کدی
##gholl
masooo
silent
##dpatrick
shrewdpatrick
ee
lll
##لارین
amnest
sf۹
نبیند
malih
##osseini
اینقدری
چپه
میچکه
آسیای
ایو
اشکها
##ssam
najafi
social
هالووین
##۲۴۵
برمیخوره
harry
مرداب
nassim
صبری
##خدایی
گرایان
##ayoun
تحصیلکرده
تکراریه
##yusf
سایلنت
##ranj
sepi
tiny
محمدحسین
سخاوت
عهدی
مینداز
پدص
##zmn
نمکد
لبات
nilou
##mark
بیعد
نوجوونی
چاکر
دعواش
mrdawkinz۱
##گریه
خداشاه
andia
رزمنده
باکی
سررفته
##omexo
##char
sangar
پرستاران
محبوبترین
##۶۸۸۰
۶ماه
جدیتر
سوما
patriot
سە
رومن
عزیزت
##۹۵b
نگهداشتن
##edar
maary۷۹۵۵
##fin
##ږی
کامب
عنابستانی
goh
##جهت
میموندم
خدعه
after
fah
سروده
aliz
کثافط
جدت
فرصتها
عکسارو
بفروشی
مژگان
بکی
ذبح
ماهینی
نریزید
##lover
لیتو
بارسایی
سریها
##oter
##ذن
singholl
hichkasofficial
##دیگ
alb
نیایش
تریدر
##andaj
دیواره
samane
احتمالن
هندوستان
قدمهای
ضعیفی
نعل
بیچارگی
کورن
کلب
خوشحالترین
ec
ghorbani
ityusf
کلوچه
ثارالله
sash
##taliban
اهلبیت
اسپیکر
monzaviolmolok
خوابشو
##tekhab
فروز
##daa
الذی
خلخالی
ftmsssss
##کاب
هیچچیز
فامیلا
bud
رگه
##ision
کامیابی
کراشی
بشینین
pik
##الار
##حور
نبوغ
خوبتون
خرسی
##ائج
میهنی
hope۶۸۸۰
چری
آبله
##۶۹۹۰
توهینی
زندگیست
گلگهر
##vom
mohnblume
عمهی
##jamali
cin
فروکش
ائلی
مضخرف
##لته
اعتد
ناراحتت
disc
تایتان
بطلب
nilu
کاندیداتوری
bbck
##tam
کوچهی
بقل
حشم
هانیه
گویش
vakil
آزمون۴۸
اااا
افکن
لست
##ابراهیمی
##رسازی
solmaz
##kai
بیعر
##اااااد
موده
##سعود
رسولی
رویاها
fs
تیرانداز
فارسى
۱۱۱
قلمرو
برومند
کاستی
##tit
ماندند
theamirallii
mahoor
فسیل
##ashit
sanandaj
جوج
دانشگ
خبرت
سانتر
##هههههههههه
amirnaseri
pouyas
##sajj
جریانه
دفعات
نرماله
ایدهآل
رقصی
بامع
##hef
ساکنین
nst
##uus
ssspn
##atae
لذتبخش
هایب
##ahani
لباسام
امتیازات
آئین
anna
۱۱۰alivand
۱۹۸۷
میدرخشد
##vl
سرکارم
##کاد
تاریخچه
alikhosr
پدره
شکیبایی
اشته
##anii
##ستست
دیا
abdolmaleki
سپردم
##ebeh
##prs
##banou
crow
##۳۴۵
انتحار
دامپزشکی
dayan
ازن
پولت
خشکه
نوازنده
##ghadimi
##will
مستجاب
مصداقی
نمیتوانی
شاهراه
نرمافزار
شکوفا
rein
satt
##۳s
ریکوئست
مصادی
بوع
##hod
##تیل
##۲۰۱۳
قرارمون
دیگع
میدادین
هیم
##alari
مرشد
بوستان
##۷۷۳
۱۹۰
##taan
##علم
باکیفیت
##azan
سگای
آلوچه
مبال
zahrah
##sajjadi
felfeledor
##khial
پروتئین
لابل
##ismus
خداشاهده
alikhosravani
وارم
##iib
سیکل
##ممممممممم
sinasa
##alavi
باندی
بشناسه
درگیرش
خیارشور
##اکولا
##ihastam
دراپ
بواسطه
tang
چنه
##tak
خوابتون
yoon
معراج
نقشههای
##fg۲
##hb
##sapp
khash
برگردونید
گودرت
bighar
ناقل
حکمی
نهادها
تسک
رابطههای
سبزیجات
تعدیل
بگای
wesu
دردمند
اینترا
حلقوم
تخصی
##ضرت
ایج
بالقوه
land
##ژیم
مخاطبین
حش
براستی
تلاشها
زکریا
gliw
سالای
نروید
##inguwu
gliwinguwu
معادله
injan
مخالفه
اللہ
بلاتکلیف
ورشکستگی
##arabi
##ahdi
دلشو
گیلک
حمایتم
منشنارو
سرخوش
##ene
هوار
cloud
مروارید
opirani
رستگاری
بنویسند
پروندههای
هپ
راهکاری
بازخورد
فردین
رایزنی
##ips
##ewolf
فرزندانشان
maqh
مسیحیت
##دوش
یکطرفه
ماشینه
جرعه
##انک
##الیم
ترکهای
احمقم
بسیجیه
##زیکی
چییی
خداا
##esadat
حرومیا
##ومار
##girlll
۴۰۰۵
##پرت
ریدمان
دوستامم
وایتکس
j۱
بافته
فعاله
aftab
##er۱
خواستنی
نخوان
shahnazi
کلمهها
جذابیتی
هالو
فانه
خطیر
kambiz
##ochi
مصائب
وجدانا
shazdeh
##سش
برک
##hashemi
##هاییه
الخال
چطو
مهربونن
##۱۶۵
بهانههای
لاتی
اعلم
بچهه
ویرگول
javaheri
##bakhshi
مفلوک
daei
##گردم
رهرو
mr۳۰b
ارزشگذاری
هیجده
mr۳۰bilo
##vishi
دوسته
چشماشون
tarii
طولانیتر
درآمده
##li۱
آهنی
مناسبتی
نیلی
استفراغ
##جربه
##n۴
بالام
##اندار
خیابونه
رودربای
without
مبینا
یاخجی
##انى
نکا
##امروز
mms
##alking
hamidsfg۲
moz
##tok
##۰۰۲
لطیفه
carpe
خلوص
##اریا
اسنو
درخواستی
##وفن
میاوردن
bijan
##yaee
آدینه
hashemi
sadi
لایی
ووت
بیتوجهی
knight
##۵۵۷
ناپاک
ناتمام
عبدالرحمن
حشره
شهربازی
درستترین
shahla۶۸۸۹
گلا
ستوده
anhed
کصشرا
amnesty
##وزا
بلاکی
ستارههای
##یدگی
محمدر
خاستم
بهز
غیرع
adineh
بروس
daneshgary
injaneb
بیصدا
##lm
##wv
##ar۱
بیشترم
استکان
##احتر
پوستت
##خن
راهبرد
منطقهی
نپرد
مراسمی
میزدید
##shayan
ساحت
os
بدور
##shoj
گمشید
اقلیمی
drsaeedjalili
vafa
سرکش
##شنا
##erty
##akani
##فکنی
درسو
right
yugyeom
##ضات
نمیذاشت
kom
##vish
##oooon
میرفته
عروسیم
جونه
متقی
flash
inlygif۷۷۰
najib
ومع
افغ
پایکوبی
بیدارن
hamoon
##albatros
التون
کاریکاتور
نسترن
نامیده
mariarem
mariaremez
jab
گزینهها
iranianalbatros
zamani
شماعی
بلرز
amirabbas
fairy
survivor
سلطانیفر
##۲۰۷
کیلومترها
نمیشناسیم
کشتهها
محبوبه
##بلد
اسکینی
قهقهه
بالاها
جیسونگ
نگویید
اشتها
اسفندی
مردود
میرینی
imhj
##ype
دیسکو
نمیشناسن
imhj۷۷
فینگ
arbaeen۲۰۲۲
فسخ
##niz
ایرانن
##astr
##even
omi
golestan
مستحکم
iv
##tir
ازونجایی
girls
باهوشی
دیگرو
میبینمتون
شکستگی
تبرئه
##راره
shut
رفتارای
راضیام
خنج
آزادم
بارونه
یارانش
البت
##urr
خیرات
جنسش
بوسیله
freeman۰۱۰
##ریس
ماندهاند
دکوراسیون
##ashin
marizz
alikhosravani۷
nct
mjahan
maqhze
##sat
##sefi۱
عذابه
استانداردهای
##ظله
ورای
##ieh
##usk
کردو
##۶۹۷
mamadhos
قلیان
ارههه
regime
کست
##یو
##۹۰۹۰
دافی
دلیلشم
علایم
اجراش
barandaz
##تتتتتت
mahn
پولداره
ahoo
رستور
مأموران
انجیل
خشمم
حسابرسی
##enderski
عمرشون
منفیه
khaliloghab
zoohr
##فید
مترسک
بخورش
جهانبخش
danialfr
کده
سرفراز
مملکته
noroozi
##۹۷۹
##طان
میپاشه
سیسخت
انقده
مثقال
نکشی
اینفلوئنسر
پرام
ghazaletun
گهواره
##gs
##maid
##arth
##enny
دقیقااااا
خالصه
guy
##omat
متناقض
##ulaa
نمیپذیرد
heshmati
اورت
استعدادی
عامی
hojjat
میگری
جزایر
نمیخرم
##تومنی
##فان
amirs
روزنامههای
##ordan
خوارج
انجیر
ult
ناشت
دوگان
تخمیتر
return
اصلاحی
faram
امش
میدزد
کاملن
##خری
پرتا
##gari
نمیپس
ansari
##edy۱
##سلمین
step
deniz
عصاره
لولو
ببخشیدا
کیفری
درنده
داود
##did
تولدی
ماشه
بچس
drhamid
vinum
متصور
سخنم
بیرح
پدیدار
##khorram
##زنده
کورونا
##irection
سایبریهای
ishere
فیه
##ننننننن
##baloch
دغه
نیروه
پوشه
##alker
نمیندازه
##حرم
ساغر
##واقع
##۱e
گوشزد
اکتفا
##ابیر
دورویی
تحریر
nsr
##egan
demitron
زیبان
تابان
اسکندر
##anv
سرتا
برخوردی
kave
درکه
بیفایده
##esep
ناآگاه
چصن
هوپ
سفیدم
گندیده
سکوتی
drhamidahmadi
چمیدونم
همرزم
دربر
گشادم
مموتی
##۲۰۳
نگرانش
کاریت
احادی
پروست
نمیگنجه
bestfan
ایرانى
مکتوب
فراخوانها
فولادی
hgh
هذا
##۲۷۴
ندرت
میپذیر
بازیگرا
##minaa
ax
##pun
زیباییه
magic
##opath
همراهم
فشارش
zargol
##mig
##۱۳۷۲
اهنگو
آلوم
zoohreeh
اشارهای
##istani
اعتراضها
برهان
##aps
##ohsen
خانومای
موشکها
hades
پدیدهای
qazal
منوی
شکری
##edia۲
برار
دستخط
##irr
ریالی
شیرد
سرتان
مغرب
لاغ
##aneh۲
رااز
مدف
خانمش
ارزشترین
کابین
دیانت
سریاله
حوصلهم
گودال
moosavi
##malek
اربعینی
##ni۱
فارسیه
کشتزار
hadii
دهندهی
پنتا
##hop
سالهها
مبهوت
##eno
شیل
صداى
##leav
kharmagas
pin
زیرک
stud
وطنفروش
ابلفض
##qz
##abz
حضار
دانشگاها
##ffind
abcd
نمیچسبه
bestfanarmy
##dos
قابلی
sinasaab
ئی
##مس
##خشن
##aeli
رفیقات
فرمایشات
hajahmad۱۲۸
##alm۱
نمیتانم
کسبوکار
فورو
توج
مهمونا
عالین
جنایتها
ترشح
ماکس
ابوب
بچا
karb
بشردوستانه
##uan
دیگهی
بچین
cheryy
##efid
بگرده
نرمالایز
جهادگران
جود
##عده
sormeh
رکعت
سوتفاهم
emmedia۲
دیاکتیو
مربا
فرانت
##aze
اهلش
پفیوزا
bighit
رکو
قرتی
galax
jedaaal
ملامت
عقبه
ساماندهی
##cadaf
بیمارستانی
احتیاجی
jang
خاوری
سالگردتوییت
vip
##sehun
تواضع
تناسب
##lia
۲۰سال
زبانش
creat
یکنو
زرگری
##فیر
##el۱
suzy
حلا
##وندید
##bardiya
بیرحمانه
اعلا
سبحانی
بایو
##۶۴۵
##mohammadi
موثره
میانم
منشنم
##kel
##lili
نیافته
##سسسسس
hajamirhastam
رفتارم
بهمراه
آخرتون
imcadaf
زاوی
##خصه
اوناس
##ahas
بوسش
##twitter
لذتش
نل
رهگذر
فروختی
زیدم
##erh
پرستش
میفهمیدن
error
سلو
niayesh
توبی
الکسی
دادنم
pejman
فیلمشو
##oon۱۲
##ubi
##darvin
harandi
##ubrick
brocc
مقتول
violet
sedighiaki
inother
inotherhand
کارآفرین
تخمت
##remedy۱
harandi۱۳۶۷
چشمانش
##o۱۷۵۲
daddarvin
kelo۱۷۵۲
سالگردتوییتریمن
##olahi
لل
ندانی
مباش
مرموز
۱sick
##بافی
پیامای
انعطاف
gogojik
۱sickremedy۱
parni
gogojik۱۱
عالیشاه
being
آدماش
ازجمله
صبرم
آتو
##que
##nne
نمونههای
لیتری
مجی
فیلمایی
majnooon
کارورزی
روشنتر
برقصیم
qaf
##خوردن
eliiii
دلشک
مسول
کلنجار
رحمانه
اصناف
پوینت
عطری
سجاده
lop
##rabi
دخترانی
##arki
پژوهشی
مؤثر
broccoli
kvd
##noon
میهم
##فعال
محراب
abdorrahmani
rip
##وقه
المع
##خواهیم
web
بینایی
مستاجر
متاورس
دهر
##۲۰۴
##بابا
citizen
ahoora
zarimiri
آماج
چانه
بیفتی
newsha
همسران
إس
همجن
babakbardiya
##las
مسمو
sho
پروژهها
همکارا
farsaneh۲
##اااااام
بامز
ordibeheshti
شوره
##iseyed
۲۰۱۲
تخصیص
گازو
ترنسلیت
idc
##پاک
##vez
##دمو
سرار
شکوری
سهله
نسازید
قلقل
سخنگو
##۸۳۰
گوشیشو
منور
reyrey
##kit
چارلی
setareism
لالیگا
jess
##بادی
##جونی
##mol
سوزاندن
لطافت
بادام
عقبتر
گده
##eiii
۲۰۰۲
ازبکستان
گمت
اهنگه
eternal
تلم
##یییین
grace
dat
۵سال
ارتقاء
rid
##پام
عشایر
ain
هیچیش
شوهره
امریکای
maral
##ebay
##teimour
بیعدالتی
اندو
ترکوندن
ارتباطم
##ppor
ناخدا
لغات
پیرمردی
اصلیه
واقعیتها
##persia
##۹۷۷۶
مکزیک
##snoop
##ermind
himm
زمام
##ety
ابیطالب
تعارض
عصای
نتوانستند
unitedafghanistan
##terrorists
نافرمانی
##گود
پیل
انقدی
مدظله
##ce۲
اونجای
##۰۲۶
farib
جبار
##نگرد
itsneg
حتم
تحلی
alis
razieh
عنت
##yazdani
sheikhnajme
pv
حضورت
صبرانه
نوشتیم
##albasi
دخل
twtt
طاهر
##alent
حسابداری
ترازو
زال
نشونهی
اپشن
winst
درگیریها
rouge
پلات
کهف
ماکه
بپوشن
چیر
حاملهام
darya۵۸۵۸
فستیوال
چیره
##ius
کانکور
سایبر
silvern
۱۳۵
marry
##اییمون
##zo
واردش
بزرگا
دوسدارم
noght
متفرق
چفیه
##فضلی
وحتی
##۵۰۴
دژمن
دئی
کتم
واگن
ابریشم
خفا
##oum
نمیذاری
yegane
مردمت
میبندیم
مازی
درن
##anfar
melik
daa
seri
بیروت
آریانا
mun
##تنی
##pty
italiakbar
##۱۳۶۹
جملههای
loey
termin
##ددی
##خورم
دیگش
پیتر
روزاست
نخوندی
داداچ
کاردانو
pishiha
##gun
##lion
صدایشان
معرفتی
تابو
vid
نخی
شهادتت
خلافکار
rsh۷nd
دات
##show
ژوئن
استخو
عقیق
تراکنش
tariikarii
##۹۲۱
گفتهی
نیمچه
##fire
nrges
alilah
اینترنتو
اجساد
پیشنهادات
گوهه
دروغها
اعدامهای
فاصلهای
موبایلم
elect
##eshoonam
##۴۴۷
mehrdad۳۵۳
میپوشید
mehrdad۳۵۳۱۱۱
بجستان
آنچنانی
بههم
arad
زدهام
آلن
حکومتش
بپوشون
هدیهای
##gles
نیشابور
قشنگتون
##۲۲shahin
۹۳۲۲shahin
bel
شص
درخصوص
نمیزدم
bec
قلبا
##شمشم
نزاریم
خرافه
محر
دورکاری
۱۳۷۵
##اتومی
mediv
blues
بجایی
##iyat
بازیگرای
medivalm۱
میفتاد
##angii
نمایندهها
فرهیخت
##۴no۱
nadia۴no۱
۱۹۸۸massacre
وامی
خوابمون
مشکیه
ادمه
##۶۸۳
جولای
دارال
میبوسمت
لبنیات
##گیریه
پیکی
سانتیمانت
room
داسی
همتونم
broken
##rezah
tomorrow
body
##صاب
هواتو
shabar
بیدا
##k۴
##زادگان
دلگیره
solo
استبد
۱۸۱۹
اولیا
پشی
برسونن
متشکل
mahboub
انهدام
بهزیستی
غربزده
rain
حاص
ماهت
حوصلهای
qias
دیرینه
کاشتن
ایله
خامن
hazratem
##ریکس
مقب
##پرستان
غیررسمی
mobinatae
mardem
رانی
##rose
معال
متنفرن
jean
kats
اندیشیدن
hoseinsalehi
دوستمه
بازت
خونخواهی
##el۴۴۴
##emat
hoseinsalehi۱۸
جسی
خراش
نزاشت
mehdi۰
##yi
alif
مونث
ترکیهای
##ange
namira
انگشتای
mobixa
برفت
کومله
ائل
mobixa۱۹
دارها
احمقتر
میپرسند
رئالی
drteimour
ازدحام
کیوی
برینیم
شورشیان
mjahan۸۹
lei
١٥
##eone
کنتور
namednegin
شرور
صدیق
ple
۱۳۵۶
##hsn
العادهای
زبانه
##gil
##abir
اثرش
##ترنشنال
drteimourzadeh
یخی
##درون
##قتل
##khale
##ebayram
##زشی
نبینن
bem
##aur
##۱۸۸۶
۳۶۰
##۱۲es
اعصابه
manyaa
##eii
خودک
سرشناس
باشى
دوسدختر
titi۱۲es
اینگور
منب
اسمه
نوازی
خلقی
saram
مادرمون
چشت
viv
شیوا
##acter
منفرد
نمیزاریم
mahdifini
mahdifinizadeh
آبکی
##اینکه
سرسبز
##esad
عقلت
گمش
##oko
پیرمرده
squ
gile
##عموم
بترکه
علیل
بگذری
zakhm
میپزم
۱۹۹۲
##بانه
بااا
##iism
دیند
##d۳r
ولایات
##ریایی
فریبی
فعالیتی
تاشو
##ii۷۲
یکیست
##هفته
پژمرده
شوپن
##ingirl
hera
موندنی
boss
##ani۲
##۷۳۵
vanil
##sie
##shon
لیسی
##صلیت
نهه
نمیشناسید
##pg
گاران
فانوس
همجنسگرایی
sweet
کظم
احتکار
evan
##alter
غذام
سلاطین
##oheil
کنترلش
لوای
میپرن
##الشعبی
##andomexo
mtvlafandomexo
##غن
کافکا
whois
##پپپپ
##arzan
zzahra
مجا
hajjsnoop
##آوره
##ژنی
تاچ
میپوشی
دوطرفه
##غغغغ
بودمو
چشمگیر
اورجینال
خستمه
پیرانشهر
نگرانت
##تلاش
بحرانهای
بیشترشون
##aaaan
##بشه
اسلو
تبانی
هیچیم
##rep
bbh
خشمی
restartleader
اوووو
بروجرد
تاجر
میخایم
بتس
توقعات
خفنترین
masoom
j۱nne
##خانم
ابول
برابرش
##ations
##gurl
درع
درجریان
نمیرید
قلدر
##nazari
##kar۱۱۱۱
مورخ
خاستگاری
osckar۱۱۱۱
##مش
marrry
h۰d۳r
اسیران
ارتفاعات
سوئدی
##hz
##mous
ارایشگاه
alan
موافقید
اللٰه
عزیزانمون
##then
solar
##قطه
۱k
شوفا
##گس
درماندگی
زعفرون
اسمان
سختش
##aliy
سایتها
سیروان
کبودی
piano
رین
##فرا
##میری
مدلهای
farari
aseman
fall
tak
اشرافی
وسایلم
علاقمو
ssunrise
qias۹۴۱
ssunrise۱۱
بیضه
لینکشو
همدرد
کونه
هیچجوره
بحثو
نمیبیند
پیدایش
وسطا
فالوشون
فوروارد
##صبر
طبقهی
آسیبهای
لجهای
##jung
##lou
##kian
براف
##دنبال
وایسی
نمیدانید
توانش
##ordad
بگذاری
مسوولیت
سائ
live
کیون
ربیع
ish
سکون
##ادس
مهدیه
ناشناست
خونهاش
ایرانیای
عجبا
iamm
raham
گستردهای
##aresorkh
۱۱۵
##اشونه
چقدررر
ترجمهی
همۀ
##aghani
narj
zard
katsum
مرط
تلس
بلاکشون
خردسال
اراضی
اینستاگرامش
طرا
##وسن
shahbanou
رحمتی
برخاسته
الزهراء
igot۷
katsumoto
##رج
مهستی
##شونی
##eshey
کافهای
lee
لفظی
مدفوع
somi
نویی
##nc
میرسونم
sarehbanooo
عاشی
##upbts
یاشا
die
یانی
شهناز
شوهری
##ashk
بستس
مکانیسم
نمیآورد
گرسنگ
جابهجا
##۰۹۸
dou
##۶۷۶
rosa
منزجر
سالهام
احمقانهای
پیمانه
##ble
چهارت
نقشهای
ترجیحی
۱۹۹۳
dynamite
جوونها
##ککککک
##chii
##۸۰۶۴
cryptom
##ونام
میرز
marrryaaam
katsumoto۱۹۸
استامین
اوردیم
واژگان
پنتاگون
##eesaa
مازوخی
iblack
##ئونی
منشور
##erry
باورشون
sadatfar
منزلت
thebluesunder
حرفاشو
یدفعه
فضلی
رفسنجان
بوری
زیادش
دلبستگی
چلابی
##اتوم
جنگها
##iiiz
hami
مصاحبهای
years
حوثیها
ech
جندگی
##ship
amir۰۰s
بفهمون
پیوستید
ولاغیر
##ویژه
azit
دورترین
اکتی
##akhsh
خیانتکار
tey
##فرت
پرته
مقالهای
آیس
موود
سمیرا
راسخ
بجنگید
کجی
مصادیق
آوای
##گیلی
آوا
مغزمون
حرمله
۱۹۸۴
دراوردم
دردناکتر
بخشیدم
پاییزه
منچستری
zohre۱۸۹
میبار
چهرهها
gholami
بارید
##۵۵۵
zaher
لابلای
دایم
بدبختیهای
زندهی
aboo
fatme
۲۰۰۱
roi
نصیبم
##نشان
realpersian
rafigh
ghasedak
##وردن
##خراش
##yes
پرتش
ریکاوری
##سهای
نسکافه
وجدانی
مدرنیته
خاشاک
mul
آموزگار
کرین
تسلیح
home
وسلام
##نگان
دلشان
آزادیه
najaf
khatoon
خبا
##hoon
ماف
راجعبه
##rahbar
##حیت
راج
قدت
##۶۰۴
بااینکه
##o۱۹۸۹
میگرید
##thea
یبو
عنو
##orleone
خودشی
##وشات
asma
پولامو
amir۲۴
hogt
##ازیت
hastist
bimar
##رول
همسایگان
معاملاتی
fereshteh
زنو
thevd
giggles
hastistyles۲۸
thevdguy
پرند
سرمایهداری
آزمایی
حقشونه
۲۸zi
##۷۹۲
استپ
##khosh
خرمن
کیفر
دنبالشون
تشوی
جلیل
مقدسه
mjo
برسین
مغال
mahdyar
ضرری
هرآنچه
##imec
پسرتون
سازمانها
تأمل
کومان
طبری
rais
##باه
نمونم
##ateme
##۱۳۶۴
نمیفروشم
نارو
دارش
کتری
movement
aliza
##۸۵۰
##یییییییییی
##۰۰۰۰۰۰
realpersiangod
کلهام
##imeh
همانجا
zmn۱۹۸۶
covid۱۹
sick
پامپ
##کله
pd
بازخواست
جانوران
missnadia
missnadia۷۸
##oou
چقدرررر
ارتیست
تعری
قلبتون
جریانهای
۲۰۱۰
نمیگیرید
##ghods
##پسرم
کثافته
خاطراتش
پولدارا
نفله
نزدیکش
کمکمون
خلاقانه
نخبهها
آموزا
خواهشمندم
bbckalbasi
بباف
رساله
شباهتی
دارما
اتص
تیزی
بیارزش
ورزی
اخلاقش
خابم
وجودتون
khob
shaban
##ادان
هالیوودی
چندساعت
##acom
خلایق
کیدز
##گیو
عذابم
شیشههای
##سلمان
##ونیک
##iyali
شمردن
دانشگا
saadat
ببرمش
##top
منسجم
بربی
دورهم
##charl
##۷۴۷۴
معجزهای
یوخدی
##otte
شعرای
کافئین
نیفتاد
##۰۰۴
abof
مدافعین
##ullahs
##gem
نشکنه
rezagh
niloofarmirz
احادیث
niloofarmirzae۳
مکار
درخور
تحرک
نخواه
##اشیان
نمیمیره
pouyasiyali
متفق
##abasi
زرهی
ریشهای
یکدفعه
شخ
میخوردی
پیامها
##darvishi
جانمان
ماموری
برملا
##obo
##iiiik
دکمهی
شکیبا
##hebox
میشهها
##۷۰۴
نینگ
##orp
yashgiiin
vinc
##بوده
##z۹
##امیه
میآیم
تودهای
jayb
##۸۸۹
beeh
##dah
##کراش
##us۱
##۲۸۴
درصدم
##الهدی
simonn
١٤٠١
##amak
sarg
انتی
##biani
گوسفندی
msfenderski
##کومت
آبن
بالعکس
nevel
اسپاید
nevelside
سنشون
feresh
ریدید
کبیره
##gah
##h۷h
وطنش
غلطا
##لوچستان
daily
ajdar
##bby
جانها
##ria
horh۷h
horh۷hor
١٩
روحیهی
تولدمو
اسرائیلیها
ps۷۵۲justice
##bu
جوایز
mimj
cherry
tolonews
گلدن
گروسی
مینیم
دیسکورد
لیبرالیسم
هیترا
کصمغز
##واش
##iniran
##اقه
تمنای
ترح
ssh
میخندیدیم
##isnot
doro۱۹۸۹
doro۱۹۸۹thea
cer
سنده
ساعتهای
اشع
بارندگی
روسپی
s۱۱۰
##r۱
##dab
چیل
##zzly
آورین
##drey
خرمدین
تشنگان
idcfuck
##پچ
خطایی
مادرهای
tm
نبردی
ارگانی
آزادش
farzane۹۵b
بخیل
تمایلی
##ops
کلیپی
##کوفسکی
naseresp
##dary
تبصره
عمهام
pash
صافی
کربن
bani
##خونهای
اختلالات
##دیش
ادوارد
##iaa
موسسات
آکادمیک
آشکارا
بلندم
پیچوندن
beehnam
اسلی
دسیسه
##isis
##۱۴۳
مردهها
تعلیمات
جوونیم
بیهوشی
pn
شرکا
عروج
himmel۴۴۴
##ements
keyon
استقلالیها
اویزون
##esheyda
آنجاست
بخوبی
خانوادشون
yaar
پیداک
##واس
##وشا
جرث
fb
سازو
هممونو
fatemehsabet
firouz
دراورده
گورم
دوریم
##کیها
اقامه
وبد
##pu
##اهمیت
سوفی
اجیر
مصیب
قضایا
خصم
خودروسازی
naahiid
##asgh
مرگمه
##ourshah
فتنهها
mobiinaa
##۶۸۹
پارتنرتون
کافور
twice
##ssiss
grizzly
حست
دومه
shahbanoufarah
هکتار
یب
درواز
##وارا
خفاش
persepolisfc
##زیست
apssiss
lie
تافت
##ashar
مستبد
معلمم
کماندو
##ayno
soleimany
یکصد
mahsan
عاشورایی
##شرای
میوفتی
بقدری
نهر
فرداست
dorsa۱۹۸۹
مزین
diako
dez
لوپ
اکسپت
خونسرد
کرباس
alirza
فاکس
عقبنشینی
زراعتی
میرقصن
##بهشت
زندست
پایاننامه
پابرجاست
iblackem
گاف
##ونمو
لبای
درآوردی
resp
ابوبکر
##حمایت
apr
##۶۹۰
##attt
aaap
pri
##یرام
##eein
##۸۴۰
قوهی
ماجراست
مپرس
##پندنت
فیها
##ئیس
نخوابم
##جامعه
جندههای
صهیونیسم
##kubrick
رفیقا
خلال
روانشن
تاییدش
اسکیت
##oooooooo
منظوری
ازاده
alirezab
سوسنگرد
کامبیز
##pahlavi
گردم
پرنس
لیلاز
##گراند
thegreatarj
قطعیت
بازیکنهای
سالو
##ehh
بلندترین
saaz
توکه
هشتگای
کلیپهای
ذرات
لیبل
##وعم
releasesheyda
روضهی
رئوف
زایی
حلقهی
گلیم
میپذیرم
##oozesh
نزاشتن
عنش
kourosh
بیاور
صفای
##shakhs
##بام
عقیدهای
taleb
imamhassan
تکا
۱۰۱
##وندین
##oduc
##ouni
##asss
خودمونی
توانستند
##dinary
انباری
instagram
dentistbaran۱
##۱۳۵۷
کاو
مسیرهای
عناوین
look
##ئیان
امنترین
##lat
##۸n
سابقهی
##attack
nyctoph
بیوم
##۱۰۷۵
دولته
بجنگی
تصمیمهای
cast
##قو
##مایند
خدیجة
لباسها
رنجها
کسشرترین
##۰۶۱۲
##pill
##ایدار
پسرد
حجره
اندراب
##mamadd
فداتشم
zara
الاه
ماهیگیری
##ifteh
##شیپ
موقعه
وپر
پایبندی
father
mbnb
کارتر
غیرتت
##داشلو
##lon
پنجرهی
جرایم
هنرپیشه
##offbro
idcfuckoffbro
پیشن
روحتون
هولد
بخوانم
thisish
بقالی
فجایع
mbnbhmn
serend
##tehrany
بیبر
گلچین
aniton
##chani
##ega
daal
aniton۲۷۹
اولوب
قائدی
خالهام
soha
roiasadr
ایرانساز
یادب
قانونه
chubby
عمیقترین
شوفاژ
والے
babak۸
رسی
پالت
جزای
خوردگی
thisism
نفهمم
شاسی
اپهای
##۶۸۴
abofazel
پرافت
میشع
##man۰۶۱۲
amiirmamadd
hollyman۰۶۱۲
hajjsnoopam
dtehrany
khaz
داستانو
golshifteh
چیمی
پلهها
##bhr
الیت
دولا
بجن
ساکته
##بوی
سوالهای
##inthebox
hamidrez
jm۹۷
اوغلان
پنکه
##۹۱۹۶
##rf
محوری
ghad
کمونیستها
##uyg
محوریت
##list
دخترشو
ویه
همانقدر
ارومم
ناممکن
بهارستان
اقلیتهای
exp
عبری
زندس
##vk
roozbeh
##ذهبی
بهبهان
اکانتو
نالههای
پیاله
رفتارت
درمیاری
ستمدیده
epis
زیرزمینی
قزوینی
وفر
ریکشن
ولز
cen
sma
غرغر
بستهی
##iiik
##stree
##alm۱۳
شلمچه
##eets
##idle
بلاگرا
استادان
شلواری
سمفونی
نفرن
محمدوعلٰی
نولان
##آزم
مسند
سیاسیه
دربیار
vess
paarinaz
tow
##ghii
جنبهی
لینوکس
##خوبی
لوبی
روانیم
##۶۴۰
معضلات
aydin
گونههای
##dela
پلمپ
میشنون
amirch
قهرمانانه
مذهبیا
گریخت
عاملی
sepi۱۸۱۸
hazratemehrad
گناهکار
زرتی
سلایق
cent
ماهستیم
۲۸sp
اعلامی
روانیه
دعاهای
تیپاکس
مهت
##۱۳۸۱
parnian
##cheaked
درآمدی
chubbycheaked
aut
هممم
##itupbts
انقلابیست
وفایی
ordibeheshti۸۳
نتوانم
مهمتری
##moussavi
رسمش
##abbasi۱۲
##n۲۸
minaabbasi۱۲
گیاهان
سئول
تاتنهام
باشما
معمولیه
برمیگردد
##bh
##zadgh
اوووف
kavehmoussavi
ببینیش
wayv
soundcloud
pass
##ابره
savepanjshir
##قیامت
حالیشون
ashk
ftmn۲۸
بافقی
تفاه
شکستند
بالاسر
##ination
danyalm۱۳
mhdarvishi
خواج
ali۳۳۴
بقیهش
##۶۷۳
مشاوران
میفتی
جلومو
آسانی
##mehran
ali۳۳۴۲۲۲
bahador
fac
##۱۴۱۲
esmaeil
باارزش
ارزانی
پلیسه
نمیکردید
ظرافت
##ریکه
قدرتش
گاییدین
خوشدل
پستون
مکارم
افتتاحیه
پنگو
samy
نمیفهمد
marhoomakbar
نارم
مبر
دادرسی
نمیدونستی
تهدیدات
##mpix
jj
##کشت
esmaeilion
shabar۰۰۰
ادراک
عرصهی
حالات
##nazanin
النصر
فوج
تعمیرات
##qad
##نیها
وزنم
عقبم
lightitupbts
tofi
حفره
بیوق
خوبیای
##ebad
marmarit
##nit
##طون
گزاری
واکنشها
ترکمنستان
##gis
میمرد
##امونم
##فیلم
زنشو
منتسب
انتخابم
یش
مومنین
##gii
مستعد
##۵۳۹
پاتی
خودسر
shfly
خندهها
shfly۳۴۲۴
اهنگهای
حکمش
خسارات
موروثی
hatami
##اکش
شاکرم
ارگانهای
zaman
مجازیم
سراپا
nfszmn
shhrzadgh
nfszmnzdh
ساخ
افری
anne
خرابتر
خشکیده
قصهها
piran
ارض
هاری
بخندن
##ahin
القدس
pouria
بادرایت
ترودو
یادشه
xerxes
tig
والت
هزاری
خوردنه
بنشینم
عظم
حسابه
##۲۰۲۰۲
ordinary
amirafshar
machk
جاویدن
machkolm
آکس
##ردرد
خریدش
خوندمش
leyll
غضب
برافراشته
اظهارنظر
امیز
پیامبری
دماغت
rezanavaz
##وث
وسیلهی
radmehr
musavie
##ووووون
مسخرهترین
خونواد
لاته
روکش
همکلاسیام
##loey
دروی
##olena
یکپارچگی
dothewh
##olenails
dothewholenails
##alem
تاکتیکی
گامهای
##اکن
اونهم
بزرگسالی
##andm
کماصلیت
interpol
tarant
kah
##۹۱۱۰۱
smm
imran
مجبورش
##pri
بریزد
hana۹۱۱۰۱
kak
کارکتر
بچهش
hastam۱
بخیری
aly
elaam
انشاء
بسمت
##irani۸۴
نمیترسیم
rei
##گفتم
تنفسی
احمقهای
mhsa
خواهرامون
کلاهبردار
##۱۱۰۱۰۲
##poyanfar
##cer
پدرها
mhpoyanfar
##kitten
majhouli
mimj۱۱۰۱۰۲
episode
hg
##۰۹۰۶
یأ
giggle
##ayy
##aries
تفاله
majhouliat
بدمون
عطف
دفا
مقبولیت
##gara
میزاشتن
saraw
حاملم
leyllonn
##cb
##عیه
saint
##ehom
تولدشه
افسردگیم
##طرفدار
callmer
ظری
نشنیدی
##۳۸۱
##۵۱۵
بردین
##زدگی
کندز
خمیده
میوههای
جسمانی
سرشت
soom
ایسگا
فینگلیش
هکری
۹۹۹
##arei
فهمیدند
مواجب
فورد
##fli
تأسف
##شششششششش
ca
متدین
دادگاههای
پادشاهان
شیرازیا
خرسند
chert
بصری
count
داشتنه
بهنظر
##h۴
شدههای
شعاع
رژیمه
##illd
مدرسهی
nazanini
حاشا
##انیک
##ahd
پائ
nazaninits
صیدی
ایرانخودرو
صدری
نمیگیرند
##tux
iu
سلح
محتمل
why
fench
##etob
نشستند
مشکلو
کندل
cry
##یمیم
مستندات
چصناله
موزیکای
cic
##ستش
بشارت
دیدهبان
معصومی
armminam
sare
rosha
نظیره
attack
فراخوانهای
همکلاسیم
narenji
متروی
##ااااااااااا
عاب
هیولای
کدکنی
اپلود
truth
dh
دلنوشته
میلیونه
سوپرای
##۲۰۱۶۹۴
faqid
mhk۲۰۱۶۹۴
لیدری
##بدی
پورتو
سابقم
مدیرم
بویایی
کارهام
چشونه
##کشم
misa
قوری
##طبی
اتل
arg
بیستو
imshki
##yap
پروا
قشنگتری
ترسوندن
فشارها
##۶۵۰
وفقط
sorkh
حشدالشعبی
ایتا
نردبان
amirafshar۱۳۵
باص
##لوفن
مردونگی
فسقلی
کرار
قدیمیترین
بفروشیم
سوکجین
##lass
##سیک
سرپوش
##radar
##ordadi
##۳m
mohamadjavad
dokhtareh
لیاقتی
نید
بچمو
خیابونن
استثمار
##ررم
##sadeq
ارزشمندی
طالبانو
سرنوشتی
##ینان
ازاون
نظامهای
بدنشون
##زلزل
jane۷۷
ves
##قمه
##ووود
ادغام
keyvan
حرفاتو
juj
خارجیه
agustd
##فیلی
تریلیون
keyonek۱
##عشق
میهنان
سودش
##oro
تاریخه
thet
واااااای
تچکر
nabash
دنیوی
nashenas
ek
نابینا
پارتنرت
محمدجواد
۲۱۰
xr
yes
ادامش
##۱۲۷
cool
۱۴۷
کلهر
rezahaj
ترمینال
بوب
نرده
یالا
##ترها
##eehh
دخترشون
لاکن
اشپزخونه
##ییه
فیکی
ماندیم
سیان
hajammar
contt
انصارالله
##gy
##avii
##ajar
##fromhel
mardemordadi
##qa
بیامرزد
ایونت
##انههای
ایندیپندنت
عامد
##ovi
##۸۰۴
ارامنه
مؤمنان
add
هین
زمینو
عکستو
pcy
بابه
##rym
انکه
شدنیه
##۲۲۵
تورکها
پلنگی
##۲۵۲۶
لبخندت
##۳۰tux
تریسام
طاقچه
##۳۰tuxedo
##ne۳۰tuxedo
بترسی
tenne۳۰tuxedo
موکول
تمامش
##ostami
##گذاران
##کلم
##بانان
کسکلک
صورتمو
میسازی
rezava
شیرینتر
##oboy
alirezad
##گگگگگگگگ
##عوض
##اتن
ساندیسی
##ورای
khabar
rezahajilou
رویدادهای
أم
فلاح
همینیم
شدنو
##رررم
kherad
heidari
سالیه
بدمزه
یدک
kingkubrick
گارانتی
##lish
رسانهی
برسانند
##imsim
گوهخوری
شاخهای
غمگینتر
cherik
welcomehom
##اپه
isra
نازش
##تونیم
##ameh
هیی
##یدنه
پیشونیم
۱۹۹۴
##isc
۱۳۹۶
onradar
kiarash
التهاب
##ht
##here
دراد
##اسن
##erii
hnik
##arak
##eiz
پاشیده
نندازین
راهکارهای
بدانم
بهدلیل
الارض
بزک
سربسته
دیدهاند
صلاحه
بیفتن
دلپذیر
مشام
بزرگت
لباش
بپاخ
عقیلی
حقوقبشر
رفیعی
میپرسیدم
نمردم
kingkubrick۱۳
حالیه
تورکجه
مینمایم
الزی
خودآ
پولتو
بیرونه
کاکو
قبلم
ماندنی
جرمش
dim
هنرش
##mmdd
میسوزن
میفرستند
تواناییهای
atisaw
atisaw۲
تنگستان
پلهای
مررررسی
engineer
ssa
##ghei
حرومزاد
sali
حلب
۷۵۰
##shd
##۹۸۴
hnikimaleki
بینا
بچگیام
خرت
رودربایستی
pm
littleg
رمزارزها
edal
jesu
##چیها
بچسبون
##bitta
صدد
آخرشه
۱۳۸z
ساحه
استایلز
soheila
قلوب
نیاری
عزیزدل
مطالبی
امرالله
##۰f
##میکنن
##۰۰۷۵
لیسان
ویدیوکال
kazem
باکل
##تیتی
##obl
رزیدن
زندانیها
موقتی
piranfar
lion
احو
##khas
ظن
قرو
لرد
نماها
##gm
استح
مرطوب
##وائج
منننن
بخام
kon
sub
اسانس
مسلسل
بوسم
قطعش
##eynabi
استبدادی
yoongi
یابن
##btsx
کشمیر
lonely
اسمو
کارآمدی
توییترمو
اینروزها
اخرت
خفم
##ayatgar
۱۳۸zeynabi
اوچون
elaamordad
##ayatgar۱۳۹۹
bu
انسانم
نامعلومی
آستانهی
ravayatgar۱۳۹۹
##little
جهانیه
غده
##شماری
چشماشو
##ااااان
چسبیدن
سردمه
##arsh
آلات
##peac
عصیان
بشنود
گشود
sunshine
##وشان
shot
جنبشهای
##ارام
##xer
کصپدر
سپاسگزار
rheology
خه
##otros
پاتوق
گرمم
دربارهاش
اسپین
hazara
##حکومت
##ayousef
بازدهی
alaki
علمالهدی
میکنى
بیرونش
فاکت
وقار
حسای
نمیرسن
بریتانیایی
##mohammadii
dle
##oxic
yoo
آزادیخواهی
fakhte
##x۸
اینشکلی
##اهاشون
گرج
elyas
آپارات
خاطرههای
ghazizadeh
فرکانس
بودنمون
درکشون
##akrami
تاپاله
##oniya
الکر
خداف
باعدالت
نمیبینند
mirkaw
mariyas
tk
جوونهای
##توه
خروشان
زلیخا
bano۱
سایرین
شمارشو
honarmand
lostin
مشاعره
##ەوە
واقعیتی
##افتاده
محمدرض
##ared
anhedoniya
##ahad
اینوایت
زبونت
fershth
fershthh
متون
ساعی
psy
##ترتر
عرزشیه
کالاها
نشستهای
jafariiiii
فقططط
strang
ahmadreza
پشهها
درخشانی
arsalan
امینم
khed
melody
act
##ql
##اهارو
نیارن
دادهام
بروجردی
بیوقفه
hosseyn
پرتم
##olet
دردتون
ghasemi
سهند
گازش
beau
جنگندههای
znb
##jf
##edev
قهری
آمادهی
مکانیزم
##ییید
نابودش
نمون
تمکین
لینکی
پسربچه
کامپ
imaniiiik
لاگ
ناکجا
عروسکی
منچست
فتن
کارل
منعکس
پیشتاز
درکار
تمدنی
mahh
##story
##لانی
سرپل
سردرگم
rafighghadimi
کویی
همینج
##icg
##فشان
##mx
منشنت
میانی
متغیر
فنجون
marpel
mansoori
میبندد
##قاد
باکتری
بچههاشون
تهنیت
پدسگا
۱۱۰۰
دوتای
سهمیهای
مینداختم
##etonam
سفاک
خاموشش
##اندم
پاول
##ami۱
##kbsr
یکهو
##کردند
fucked
غوغای
نامبرده
ry
هنره
##منشن
##۰۵۶۳
شکوهمند
تساوی
##۰o۰
##لتری
##atrik
نگفتید
zagh
##گشایی
سرارسری
##معی
پروازی
ابدیت
خمیازه
##at۱۴
قرق
۱۳۱۳
ماینر
امریکاست
اتر
آنروز
##azashna
احمدشاه
میگذاریم
میچسبون
افشاری
schahr
##lan
بهصورت
تیمور
خصوصیت
تعلل
عینا
ajorlo
علیخانی
##afia
بنیادین
r۰
##۱۰۰۰
##uma
##۲۳۸
آنگونه
هواف
بزنمش
##user
##pashmkbsr
ajdarpashmkbsr
dokhtarehbahar
شیرزن
دیندار
ورزیدن
ایمانی
میبرین
مزن
aboutrira
aliirezzaaaaam
alizad
mrmr
##۱۵۹
زشتترین
##زمی
##پید
انهای
کلنگ
شورشو
##sweet
ailin
follow
##she
##aziz
leon
aan
اییی
کثیری
reza۷
##الانوار
##زینه
##wo
کلکسیون
دیدنم
ahmadinejad
آوردنش
##مهم
دادخواهان
##منا
پائی
##۹۴۳
hosseinronaghi
zain
آبزی
کمترم
##aww
##ibanoo
##ttl
۳۲۴
##arti
فرافکنی
امنیه
##rahi
hajammar۱۶
میبازه
حلالم
##araq
نمیدانستم
talaye۷۳۸
##jw
##گیرد
دارمت
##namanm
برنمیگرد
افطاری
##eef
بیدارش
برقصه
m۳
همانی
چیییی
blood
صلاحیتها
برچیده
ازو
##ویک
##۹۳۰۱
##vaad
داروساز
##ubhouse
achi
رطو
بترسه
seyedyh
هولوکاست
##t۷
گناهه
bardi
fighte
دومیش
mehdit
banuirani۸۴
پرافتخار
مننن
حقیقتن
abbasi
آقازادهها
عارضه
نالایق
vincent
تازهترین
جالبش
نصیبت
shoja
##ofme
##intr
استثنایی
mrmorteza
rik
##amam
محشره
ارتقای
##چچچچ
##hidden
دنج
بروب
exoleav
شلوارم
مطمین
##baar
alisch
مصری
##akarimi
رؤی
شدە
دمبله
کاراتون
کیلوگرم
kzmy
شهلا
##abc
عسگری
israeli
هژ
درکشور
قرنی
فریبرز
نمیگیگیریم
quant
مالزی
marmaritonam
##ابیت
کنیز
خوردهایم
عزتی
شبهنظ
مشکوکم
راهشو
faranak
دانلودش
ff۱۵
##locke
talaeeyeh
farariazashna
مستان
##afat
##alefdal
کمن
##ااااار
پانتر
ویتنام
baza
انجا
شماییم
العظیم
bikhial
nasser
zaynmalik
پستان
آدمیم
فندق
ازهمه
امرو
پلههای
behtarin
civ
خارم
ظریفی
بپزه
hajalefdal
##johnlocke
ff۱۵johnlocke
hajalefdal۲
سیار
مزاج
حاضرند
ببخشی
پیشرفتی
طهماسب
دینداری
##chain
بشناسد
##essi
##اکار
##andsf
مومنان
naeempix
فرنگ
عواط
nick
سمین
alzd
وضعمون
fatkhorshid
زخمه
##ize
##barz
فلسفهی
۹۰درصد
نریزه
nial
هب
پاشد
دندونپزشک
teacher
تینیجر
shek
لطفتون
بستهای
نیازمندان
اولماز
secur
مینداختن
##panah
##teb
تنشون
نشستهاند
وقیحانه
did
امپول
نمیاید
مغازههای
آبرویی
افتخارم
گاون
##۹۱۷
##۲۴۲۴
خنگی
رویاهام
##نط
##فور
ساندوی
##الفضل
کمم
میخواستید
اومدنش
والای
همتای
قبادلو
اسون
میدزدن
اربیل
##ebody
##عملی
book
چیکا
گوشتی
mohamadi
همکاریهای
bazaargard
##icc
زیرزمین
سرلشکر
توویت
کلیم
انتخاباته
nakeesaa
خلیلی
##i۲
مجسم
زندگیمونو
واقعیات
corp
##عداد
رفیقمون
hastiarmy۷
نکو
رهبرت
requ
ایستادیم
##حتم
##yle
ایرپاد
متقاب
مردار
##ago
حیایی
ماشینای
بشمار
##marz
میطلبد
lp
##۱۱۶
تیما
sarina
kimian
باشگاهی
کیریا
سیرت
##ppp
##shadfc
mrmrshadfc
پینه
##ayam
##astani
بحثها
نمیشناسمت
cs
stand
##tmek
وتح
مهرت
ste
گوششون
پیامدهای
مترقی
وول
##joun
##۶۶۵
ناسالم
هموفوب
coff
دیزی
آشفتگی
طرفدارهای
##kkkk
اخلاقیات
استعماری
link
##roon
دومینو
دوروزه
مقعد
alpha
لایههای
alisaeedi
باباااا
thegr
mrzamir
یاسمین
##۶۲۵
##fatyma
aboutfatyma
خواندند
nari
زندانه
پستو
##angir
##ومهدی
merdas
benyamin
بیادب
##oshi
leyliw
leyliwsh
##دنا
هیچیو
کشتیم
۴۳سال
niloofa
ناشتا
عامدانه
seet
##فالو
##dee
امادگی
##sta
دیدهایم
ضعیفترین
همکارای
##۳۵۰۱
##uuuu
##vet
قطرهای
##tie
تاپم
بنشیند
همرزمان
##ەای
دارع
صفوف
aysan
آتیشه
کصدست
##ffindorr
برنی
ارتزاق
hichkas۱۸۸۱
rick
پرندهای
##oumi
نمیتونستن
نشناخته
welovey
ومو
سربر
آبانه
تکفیری
itsbor
مربیگری
گلوت
itsboredme
نشستید
اندیشمند
kit
وسطاش
شخصیتم
##kaiday
حسا
کفاف
خندش
کارمندای
نسن
اولوی
نفسه
نذاری
poker
##amend
موکل
داداشمو
مدلش
karbaar
لمپ
##dz
تووی
media
karbaar۲۰۲۱
لانا
##hood
سالیانه
rre
زندگین
عملش
##shaf
زادههای
منظورمو
استعلام
##adad
آرنج
maarya
برزیلی
maaryaam
##طورم
نارگیل
گوهرشاد
minion
##کرات
##برکت
نابودم
heal
ghazizadehsa
ryh
بنه
##asar
##khak
میرسیدم
existen
هاز
تاریخش
نگاههای
##۶۰۳
support
##ذاری
##hana
justice
هلیا
lin
##kii
##امهدی
عالیجناب
afz
kimian۲۰۰۱
لوم
##اااااک
aylin
گفتگوهای
seetamend
seetamendess
ezz
hamraz
سویا
##ikhanoom
استامینوفن
nog
phil
مقدمات
لاشه
ایزدی
میدند
وقتتون
movi
monstax
گندهتر
gotyj
##هاور
آرامکو
پالتو
police
زوای
##vara
##جیه
دخترارو
حقوقشون
barbas
تفتیش
الکتریکی
بطن
۱۲۲
میزاشتی
بچهات
سنای
بیشعوره
دستشونه
audrey
##tara
واتر
##۳i۳
سرگرد
##ساخته
proud
کروناس
محلههای
##zari
نخیرم
دکه
شاب
##بخشه
##dev
ultra
##nor
بحارالانوار
رطوبت
هسی
##تار
پنچ
صلى
vian
##الس
کنندههای
بجنگم
bol
نورالهی
۱۰۰۰۰
حاشیهای
۷۷۴۴
زدگان
ghaaf
##umn
karimbeigi
ریرا
rezavaisi
##elen
میرفتند
مازاد
خلوتی
##inah
نمردیم
خماری
۲۶۷
وقتت
##alizade
گلولههای
تریپ
اهریمنی
ایف
گفتمانی
عدالتخواهی
unh
اسفند۱۳۹۹
نزدیکتره
##taheri
کارساز
##ayem
پلیسی
artourshah
کمالات
mjavad
واعظی
##۸۰۱۶
moody
##۱۳۶۱
میزم
بچشو
##atie
ساختهاند
جنبههای
##edon
##اطلا
توپو
##urder
تفحص
خبرو
##oper
خواران
میبردیم
##officiall
##۷۳۰
نیافتنی
##lotfi
stranger
##خودم
birthday
[...]
